<unk>	0
<s>	0
</s>	0
.	-3.06371
,	-3.20747
▁the	-3.57133
s	-3.68784
▁and	-4.2308
▁of	-4.26133
▁a	-4.2851
!	-4.35821
▁to	-4.50402
▁in	-4.60713
▁I	-4.73559
t	-4.76037
'	-4.77976
▁	-5.0781
?	-5.11082
e	-5.11159
ing	-5.12183
n	-5.13433
▁is	-5.15332
▁you	-5.21756
▁"	-5.30005
▁that	-5.31062
ed	-5.36572
▁with	-5.39409
▁his	-5.41627
▁was	-5.45656
en	-5.48048
▁he	-5.48256
--	-5.50388
▁it	-5.52989
▁(	-5.54589
d	-5.54873
▁*	-5.61876
▁for	-5.62117
▁The	-5.6355
▁on	-5.65352
▁be	-5.67081
r	-5.68885
▁her	-5.71054
▁my	-5.72714
-	-5.77081
m	-5.77692
▁this	-5.83295
▁me	-5.83492
er	-5.87268
▁And	-5.96303
▁und	-5.98972
▁at	-5.99563
▁are	-6.01239
;	-6.02209
▁him	-6.02394
▁will	-6.04055
▁have	-6.0427
ly	-6.04533
▁A	-6.05195
▁an	-6.05726
▁die	-6.07033
▁not	-6.10852
▁so	-6.11264
).	-6.13065
▁as	-6.14117
▁all	-6.15937
▁one	-6.16696
▁ich	-6.17181
▁der	-6.20464
y	-6.20626
▁man	-6.21231
▁or	-6.24522
▁He	-6.26308
▁Und	-6.27222
▁from	-6.27659
."	-6.27879
▁your	-6.28158
▁nicht	-6.32438
▁zu	-6.32504
▁like	-6.32506
▁they	-6.36211
▁But	-6.36315
▁out	-6.3862
st	-6.43967
in	-6.48939
▁ein	-6.51181
▁no	-6.52928
▁she	-6.53111
’	-6.54209
▁ist	-6.54696
▁up	-6.55137
▁by	-6.56111
.)	-6.60005
▁we	-6.62186
a	-6.62671
▁has	-6.62886
▁had	-6.63566
es	-6.63648
▁were	-6.64763
▁can	-6.65779
▁do	-6.66292
▁but	-6.67775
▁It	-6.68455
I	-6.70045
▁what	-6.70533
,"	-6.72202
▁who	-6.75299
▁das	-6.75458
re	-6.76461
▁would	-6.77256
▁when	-6.78858
▁MEPHISTOPHELES	-6.79209
▁sich	-6.79214
▁Mr	-6.79743
▁there	-6.79797
▁den	-6.80246
▁du	-6.80839
▁mir	-6.84088
▁them	-6.84336
▁which	-6.84485
g	-6.84549
▁You	-6.85083
▁Project	-6.86189
▁their	-6.86689
l	-6.88261
▁if	-6.89268
▁about	-6.89593
▁LOUISA	-6.89604
▁Ich	-6.91788
▁FAUST	-6.91804
▁mich	-6.91808
▁S	-6.92319
▁There	-6.92729
▁eyes	-6.92929
▁FERDINAND	-6.9364
▁So	-6.94425
▁said	-6.95453
:	-6.96381
▁more	-6.9781
▁Gutenberg	-6.99721
▁er	-6.99999
▁into	-7.00015
▁work	-7.01594
▁sie	-7.02119
▁es	-7.03707
▁father	-7.04174
▁know	-7.04586
ve	-7.04753
▁mit	-7.04835
▁must	-7.06215
al	-7.07334
▁over	-7.07363
▁old	-7.08351
▁see	-7.08454
▁auf	-7.09712
le	-7.09774
o	-7.10662
▁Die	-7.11512
▁dem	-7.11585
▁What	-7.12199
▁They	-7.12991
p	-7.13044
▁am	-7.13765
ll	-7.15026
▁down	-7.15422
f	-7.16926
▁any	-7.17749
▁MILLER	-7.20656
▁'	-7.22348
▁how	-7.22499
▁been	-7.23837
▁other	-7.24251
▁un	-7.24558
▁F	-7.25066
▁PRESIDENT	-7.26172
▁In	-7.26626
▁day	-7.2967
u	-7.29781
▁us	-7.30173
▁von	-7.30202
▁back	-7.31357
▁come	-7.31598
w	-7.32157
▁people	-7.32693
▁little	-7.33363
▁nur	-7.33377
b	-7.33503
?"	-7.33626
▁some	-7.35475
▁now	-7.35616
▁time	-7.35694
an	-7.36008
▁never	-7.36113
▁ihr	-7.36819
▁This	-7.36864
▁say	-7.37244
▁She	-7.37779
▁go	-7.38012
c	-7.38113
▁Der	-7.38381
▁Ihr	-7.39147
▁only	-7.403
▁good	-7.40399
E	-7.40578
ge	-7.41243
▁than	-7.4174
▁may	-7.41852
▁our	-7.41914
ur	-7.41965
h	-7.4206
▁don	-7.42491
ar	-7.42574
▁Das	-7.4322
▁upon	-7.43455
k	-7.43731
▁wie	-7.44111
▁too	-7.44562
▁way	-7.48001
▁then	-7.48444
▁should	-7.48681
▁Oh	-7.4903
▁here	-7.49408
▁look	-7.49914
▁says	-7.50762
▁could	-7.51123
ig	-7.51721
▁something	-7.51943
▁thou	-7.51966
▁through	-7.52753
▁where	-7.52787
▁We	-7.52953
▁Ein	-7.53816
▁heart	-7.54013
▁make	-7.54922
▁God	-7.55365
▁Was	-7.56108
and	-7.5663
▁dich	-7.56972
▁before	-7.56989
▁1.	-7.57189
▁years	-7.57365
▁great	-7.57778
▁think	-7.58093
▁these	-7.5818
▁im	-7.58387
▁shall	-7.58703
▁nothing	-7.59591
▁No	-7.60302
▁Da	-7.60311
▁most	-7.60515
▁away	-7.60532
▁street	-7.60604
▁hand	-7.60651
▁very	-7.60656
▁did	-7.61443
on	-7.61496
▁love	-7.61649
▁still	-7.61843
S	-7.62919
ch	-7.63164
▁around	-7.63198
▁WORM	-7.64085
ation	-7.64175
i	-7.64358
▁Du	-7.64886
▁Be	-7.65044
▁If	-7.6553
▁life	-7.6593
el	-7.65954
▁O	-7.66008
▁night	-7.6602
▁hat	-7.66584
▁face	-7.66759
▁men	-7.66813
▁its	-7.68197
▁off	-7.68207
▁head	-7.68392
em	-7.68806
▁That	-7.68908
▁dir	-7.68939
et	-7.69014
▁Er	-7.69086
or	-7.69403
▁under	-7.69475
▁MILFORD	-7.69758
▁newspaper	-7.69759
▁Wie	-7.69848
it	-7.70236
lich	-7.70456
▁ge	-7.70479
▁T	-7.7056
▁world	-7.70741
▁works	-7.70819
▁two	-7.71729
▁got	-7.71964
▁Es	-7.72078
▁himself	-7.72729
▁such	-7.72767
A	-7.72897
▁To	-7.7355
▁P	-7.73852
▁war	-7.74084
▁going	-7.74636
▁s	-7.75201
▁eine	-7.75611
▁LADY	-7.75826
il	-7.75828
▁G	-7.76472
▁ver	-7.76669
▁get	-7.76905
▁His	-7.77102
▁C	-7.77546
▁p	-7.77801
▁thy	-7.77913
the	-7.78197
▁long	-7.78687
ic	-7.78827
▁Sie	-7.78925
▁just	-7.78967
▁Louisa	-7.79
able	-7.792
▁E	-7.79585
ü	-7.79593
▁t	-7.79723
▁B	-7.79953
chen	-7.80862
▁Euch	-7.8113
▁doch	-7.82365
▁moment	-7.82935
▁again	-7.83138
▁M	-7.83153
▁K	-7.84126
▁thought	-7.84429
▁uns	-7.84482
▁An	-7.8515
ies	-7.85447
▁tell	-7.85582
ers	-7.85584
▁auch	-7.86301
▁things	-7.86428
▁home	-7.86731
▁Yes	-7.8696
▁My	-7.87038
▁son	-7.87374
▁da	-7.88015
▁vor	-7.88136
▁wir	-7.88564
▁first	-7.89069
▁room	-7.90317
▁For	-7.90378
▁take	-7.90737
▁story	-7.91469
▁Mit	-7.91594
▁place	-7.92561
te	-7.9264
▁city	-7.9271
▁hands	-7.93696
▁Then	-7.9381
▁window	-7.93887
▁electronic	-7.9391
▁W	-7.93929
▁give	-7.94435
▁does	-7.94476
um	-7.95081
▁diese	-7.96342
▁daughter	-7.96435
de	-7.96591
▁noch	-7.9664
▁wird	-7.9686
ra	-7.97167
▁MARGARETE	-7.97717
▁Doch	-7.97749
▁own	-7.98494
▁meine	-7.98879
▁wohl	-7.99015
▁ihn	-7.99016
▁without	-7.99142
as	-8.00053
ion	-8.00135
▁w	-8.0024
▁rain	-8.00332
▁lady	-8.0035
▁let	-8.0047
est	-8.00556
▁walk	-8.00609
▁end	-8.00862
▁des	-8.00886
▁name	-8.01793
▁well	-8.02068
ous	-8.02801
▁came	-8.03016
gen	-8.03035
▁re	-8.03625
is	-8.03651
▁sein	-8.04027
▁MARSHAL	-8.04391
▁much	-8.04397
▁right	-8.04461
▁another	-8.04667
▁Foundation	-8.05774
▁voice	-8.05775
▁c	-8.05845
▁Wen	-8.0586
less	-8.05877
▁always	-8.05882
▁after	-8.05889
ten	-8.0606
)	-8.06317
th	-8.07951
▁deine	-8.08523
▁Sch	-8.0861
▁honor	-8.08612
▁nach	-8.08692
ce	-8.08893
▁thing	-8.09131
▁All	-8.09484
▁even	-8.09543
us	-8.09638
▁music	-8.10051
ut	-8.10216
▁kind	-8.11504
▁hier	-8.11577
▁schon	-8.11589
▁um	-8.12174
▁mein	-8.1219
▁read	-8.12401
▁hear	-8.12532
▁bin	-8.13769
▁full	-8.13783
▁might	-8.1454
▁yet	-8.14541
ity	-8.14715
▁made	-8.14756
▁stand	-8.16096
▁want	-8.16103
z	-8.16171
▁L	-8.16237
▁One	-8.16383
"	-8.1657
he	-8.16611
▁child	-8.17615
▁terms	-8.17644
▁Here	-8.17706
▁aus	-8.17719
▁mind	-8.17723
▁Now	-8.17821
▁young	-8.17851
ist	-8.18155
▁girl	-8.18251
▁looked	-8.18575
▁woman	-8.19278
▁D	-8.20312
▁looking	-8.20719
▁keep	-8.2084
im	-8.20877
▁soul	-8.21021
▁How	-8.2115
F	-8.21801
▁days	-8.22243
▁Wir	-8.22556
▁Lee	-8.2257
be	-8.22997
▁eye	-8.23466
ter	-8.23489
to	-8.23665
▁einen	-8.24128
▁dark	-8.24146
▁death	-8.24146
▁nun	-8.24157
▁because	-8.24162
▁wenn	-8.24167
▁last	-8.24253
▁sind	-8.24254
—	-8.24511
▁part	-8.24742
ö	-8.24959
▁Ha	-8.25047
ness	-8.25704
▁few	-8.25856
▁against	-8.26121
▁whole	-8.26219
▁ago	-8.26444
▁kann	-8.27358
▁Ah	-8.27387
▁find	-8.27441
▁ever	-8.27545
▁themselves	-8.27565
▁daß	-8.27597
▁went	-8.27694
▁every	-8.27765
id	-8.28148
▁streets	-8.29014
▁put	-8.30935
am	-8.31442
▁Well	-8.31732
▁Wer	-8.32105
!"	-8.32611
▁durch	-8.32692
at	-8.32901
▁über	-8.32928
▁Welt	-8.3294
▁hast	-8.32972
▁along	-8.33015
▁hold	-8.33195
▁H	-8.33614
▁Zu	-8.33913
▁bit	-8.3408
▁Mein	-8.34182
▁Den	-8.34287
▁remember	-8.34312
▁set	-8.34321
▁heaven	-8.34519
▁copyright	-8.34809
▁Not	-8.34826
▁für	-8.34832
▁gleich	-8.34876
▁recht	-8.34886
▁sch	-8.35056
▁de	-8.35219
▁Als	-8.35428
▁soll	-8.35733
▁h	-8.35935
▁r	-8.3601
▁comes	-8.36273
▁Ferdinand	-8.36681
▁while	-8.36681
▁windows	-8.36716
▁play	-8.36757
▁once	-8.37138
ah	-8.3766
R	-8.37916
▁throw	-8.38116
ung	-8.38427
▁enough	-8.38587
ie	-8.3861
ben	-8.39223
▁Do	-8.39745
▁letter	-8.40034
▁use	-8.40096
▁arms	-8.40264
▁half	-8.40546
▁why	-8.40546
▁money	-8.40549
▁agreement	-8.4056
▁st	-8.40567
▁U	-8.40767
▁gut	-8.40814
▁sat	-8.40962
▁Ist	-8.4179
▁store	-8.41996
ment	-8.42219
▁gar	-8.42467
▁myself	-8.42546
▁dead	-8.4257
▁side	-8.42593
▁“	-8.42604
▁When	-8.42657
▁whose	-8.42764
ul	-8.43011
The	-8.43013
▁als	-8.43056
▁f	-8.43069
▁watch	-8.43812
▁friend	-8.44067
▁Geist	-8.44148
▁sit	-8.442
ful	-8.44459
▁bei	-8.44543
▁United	-8.44587
▁almost	-8.44587
▁left	-8.44587
▁front	-8.44611
▁cannot	-8.44622
▁Ge	-8.44749
▁States	-8.45256
▁light	-8.45925
▁call	-8.46239
▁words	-8.46282
▁Street	-8.4667
▁matter	-8.4667
▁behind	-8.46671
▁country	-8.46675
▁three	-8.46691
▁k	-8.46737
▁Why	-8.46744
▁lost	-8.46943
▁car	-8.47225
ling	-8.47579
D	-8.47861
▁stands	-8.47999
ad	-8.48374
▁write	-8.48421
▁business	-8.48798
▁St	-8.48805
▁viel	-8.48819
▁baron	-8.48822
ish	-8.48838
▁Daß	-8.4885
▁water	-8.4886
end	-8.49014
ant	-8.49221
den	-8.4935
▁hab	-8.49555
▁Wo	-8.49582
▁muß	-8.49585
▁Her	-8.50306
▁Ver	-8.50397
▁curious	-8.50713
ir	-8.50879
▁dear	-8.50975
▁better	-8.50976
▁black	-8.50977
▁euch	-8.50988
▁show	-8.5102
▁believe	-8.51049
se	-8.51192
▁l	-8.51245
▁door	-8.51298
▁forth	-8.51586
T	-8.5204
ck	-8.52114
You	-8.52591
▁o	-8.5274
▁house	-8.52905
▁ask	-8.52963
▁GutenbergTM	-8.53194
▁alone	-8.53195
▁poor	-8.5322
”	-8.54113
ate	-8.54714
▁As	-8.54718
▁whom	-8.55066
▁new	-8.55179
▁crowd	-8.55216
▁perhaps	-8.55467
▁ihm	-8.55467
▁stood	-8.55467
▁pay	-8.55554
▁town	-8.55555
▁anything	-8.55647
nd	-8.55884
▁Mann	-8.55889
▁hin	-8.55894
▁Ach	-8.56502
▁alle	-8.5656
▁grow	-8.56917
▁MRS	-8.57801
▁Pitzela	-8.57801
▁immer	-8.57892
▁Faust	-8.57905
nt	-8.58636
ier	-8.58639
▁far	-8.58666
▁talk	-8.58797
uch	-8.59013
▁faces	-8.59373
age	-8.5939
O	-8.59543
if	-8.59548
zu	-8.59552
with	-8.59595
----	-8.59671
rchi	-8.59729
men	-8.59762
▁court	-8.60148
▁Teufel	-8.60173
▁THE	-8.60183
▁women	-8.60185
▁wieder	-8.60214
▁suddenly	-8.60252
all	-8.60531
▁feet	-8.60754
tic	-8.60926
▁seem	-8.60993
▁evening	-8.61181
▁m	-8.61185
ive	-8.61333
▁denn	-8.62551
▁ta	-8.62589
▁yourself	-8.62612
▁together	-8.62613
▁paragraph	-8.62613
▁hour	-8.62668
▁gone	-8.62687
▁others	-8.62802
▁mehr	-8.6297
un	-8.63113
ber	-8.63828
▁sun	-8.6387
ty	-8.64048
▁feel	-8.64503
Well	-8.64505
▁pause	-8.64598
▁open	-8.6462
▁dance	-8.647
▁used	-8.64925
▁mag	-8.64939
▁picture	-8.64985
led	-8.6503
▁hope	-8.65051
▁MARTHE	-8.65112
▁between	-8.65112
▁job	-8.65126
▁gern	-8.65133
▁Will	-8.65138
▁devil	-8.65144
▁Avenue	-8.65152
▁each	-8.65187
▁Menschen	-8.65215
▁tired	-8.65249
▁pig	-8.6527
▁Von	-8.65441
▁asked	-8.65711
▁Sing	-8.66058
▁copy	-8.67066
▁alles	-8.67167
▁Your	-8.67206
▁smile	-8.67226
▁Herr	-8.67576
▁Literary	-8.67676
▁selbst	-8.67684
▁lay	-8.6795
▁longer	-8.68377
ß	-8.684
▁d	-8.68824
▁lie	-8.68859
eh	-8.68961
▁seine	-8.6943
What	-8.69682
nen	-8.69956
▁mean	-8.70012
▁itself	-8.70308
▁judge	-8.70308
▁wife	-8.70308
▁found	-8.70311
▁Auf	-8.70332
▁Yet	-8.70343
▁lot	-8.70577
▁looks	-8.70729
▁waiting	-8.70835
ENE	-8.72024
▁N	-8.72059
▁Of	-8.72595
▁SC	-8.72602
▁free	-8.72675
▁Gott	-8.72836
▁means	-8.72908
▁access	-8.73011
▁different	-8.73011
▁lake	-8.73021
▁begin	-8.73174
▁ones	-8.7318
▁Let	-8.73306
It	-8.73471
▁Tag	-8.73528
▁live	-8.73637
He	-8.74152
cht	-8.74347
▁R	-8.74464
op	-8.75191
▁hard	-8.75551
▁[	-8.75788
▁floor	-8.75788
▁same	-8.75792
▁children	-8.75794
▁hair	-8.75798
▁Kind	-8.758
▁saw	-8.75831
▁trademark	-8.75834
▁twenty	-8.75834
▁donations	-8.75836
▁gehn	-8.7589
▁forget	-8.76096
▁Jan	-8.76395
▁V	-8.76699
org	-8.76843
▁standing	-8.76894
▁Or	-8.76971
▁listen	-8.775
▁vo	-8.77875
▁laws	-8.77971
▁Ja	-8.78408
▁v	-8.78455
▁Winkelberg	-8.78646
▁prince	-8.78646
▁silence	-8.78646
▁sky	-8.78647
▁outside	-8.7865
▁drink	-8.78652
▁help	-8.78654
▁Dann	-8.78658
▁white	-8.7866
▁nie	-8.78689
▁dream	-8.78996
▁paper	-8.79045
▁become	-8.79049
co	-8.7919
M	-8.792
▁art	-8.79258
▁Nacht	-8.79298
▁Des	-8.7978
▁sp	-8.79963
ble	-8.80022
▁arm	-8.80165
▁air	-8.80496
that	-8.81022
▁strange	-8.81259
▁many	-8.81352
ance	-8.81359
▁major	-8.81587
▁understand	-8.81587
▁Nicht	-8.8159
▁Mich	-8.81625
▁suit	-8.81632
▁sir	-8.81669
▁Nu	-8.81811
▁nichts	-8.82151
▁goes	-8.82213
we	-8.82865
▁ab	-8.83007
ld	-8.83181
sh	-8.83305
N	-8.83644
▁being	-8.83734
ern	-8.83842
but	-8.84199
▁high	-8.84272
▁ten	-8.84424
▁answer	-8.84564
▁happy	-8.84617
▁herself	-8.84617
▁next	-8.84617
▁provide	-8.84617
▁knew	-8.84617
▁train	-8.84617
▁Laß	-8.84642
▁certain	-8.84647
▁yes	-8.84825
▁started	-8.84851
▁across	-8.84859
▁bist	-8.84957
▁question	-8.85183
▁table	-8.85186
▁idea	-8.85188
▁fingers	-8.8522
▁Nun	-8.8526
sch	-8.85327
▁dis	-8.85344
▁word	-8.85406
▁gold	-8.85746
▁makes	-8.85845
--"	-8.85952
▁b	-8.86298
▁though	-8.8688
Oh	-8.87195
▁done	-8.872
▁state	-8.8725
oo	-8.87251
▁g	-8.87271
▁Herz	-8.87359
hose	-8.874
▁agree	-8.87723
▁Chicago	-8.87742
▁pretty	-8.87742
▁else	-8.87743
▁Anton	-8.87744
▁thousand	-8.87747
▁body	-8.87747
▁con	-8.87759
▁paid	-8.87772
▁OF	-8.87835
▁Where	-8.87914
▁wär	-8.88012
sen	-8.88267
▁book	-8.88491
ow	-8.88797
▁ba	-8.88858
ver	-8.88862
▁warm	-8.8923
ide	-8.89302
▁taken	-8.89339
▁thee	-8.89631
▁erst	-8.90355
But	-8.90364
▁person	-8.90418
▁e	-8.90477
▁ja	-8.90522
▁laugh	-8.90549
▁form	-8.90779
▁Louis	-8.9082
▁duke	-8.90968
▁chair	-8.90968
▁beggar	-8.90969
▁charge	-8.9097
▁Darrow	-8.90971
▁Miller	-8.90973
▁felt	-8.90983
▁four	-8.91002
▁guy	-8.91019
▁lips	-8.91027
▁People	-8.91041
▁fact	-8.91041
bo	-8.9105
▁Man	-8.91093
▁staring	-8.91323
▁coming	-8.91354
U	-8.91373
▁leave	-8.91397
ia	-8.91544
▁seen	-8.91618
▁ste	-8.91623
▁Leben	-8.91691
▁called	-8.91717
▁eBook	-8.91763
▁talking	-8.91808
▁law	-8.91864
▁boy	-8.9196
▁told	-8.92239
▁wait	-8.92594
▁pass	-8.92829
L	-8.92872
▁ganz	-8.93362
ner	-8.93371
▁gre	-8.93449
mit	-8.93505
▁fort	-8.93598
▁wonder	-8.93633
And	-8.93749
▁keine	-8.93803
ry	-8.93955
no	-8.94075
▁kein	-8.94158
der	-8.94195
▁since	-8.94247
utenberg	-8.94258
▁License	-8.94301
▁Rodjezke	-8.94301
▁Walter	-8.94301
▁rather	-8.94308
▁heavy	-8.94334
▁stay	-8.94338
▁terrible	-8.94359
▁pro	-8.94462
▁geht	-8.94486
▁sad	-8.94572
ww	-8.94619
▁Re	-8.94643
her	-8.94866
▁tears	-8.94961
▁won	-8.9498
▁case	-8.95076
▁Aus	-8.95502
man	-8.95652
ol	-8.96031
▁Who	-8.96309
▁buy	-8.97184
▁Zeit	-8.97313
ily	-8.97369
▁Sikora	-8.9775
▁tax	-8.9775
▁Freund	-8.9775
▁written	-8.9775
▁bosom	-8.9775
▁corner	-8.97755
▁hours	-8.97851
▁five	-8.98017
▁mine	-8.98028
▁minutes	-8.98254
▁dein	-8.98297
▁lights	-8.98515
▁sits	-8.98587
▁appear	-8.98649
▁sound	-8.98819
▁walked	-8.99019
▁bring	-8.99091
▁toward	-8.99121
▁Bess	-8.9933
▁At	-8.99716
▁n	-8.99865
▁Un	-9.00245
▁vas	-9.00408
▁sleep	-9.00437
looking	-9.00691
▁silent	-9.01057
ER	-9.01093
▁particular	-9.01321
▁Lady	-9.01326
▁turn	-9.0138
▁broken	-9.01399
▁Hier	-9.01451
▁rest	-9.01452
▁Mir	-9.01483
▁seems	-9.01542
▁Vor	-9.01615
▁unter	-9.0169
▁fire	-9.0178
ine	-9.01995
▁soon	-9.02259
P	-9.02293
▁Z	-9.02307
Er	-9.02411
▁stare	-9.02676
▁sei	-9.02689
▁buildings	-9.02719
lo	-9.0326
▁fee	-9.03296
om	-9.03359
No	-9.03498
C	-9.04121
ther	-9.04328
up	-9.04472
▁notice	-9.04632
▁deep	-9.04729
▁Thou	-9.04857
▁wish	-9.04931
▁least	-9.05025
▁morning	-9.05025
▁true	-9.05025
▁writing	-9.05025
▁happiness	-9.05028
▁Mutter	-9.05032
▁DIE	-9.05062
▁sitting	-9.05075
▁comply	-9.05076
▁mother	-9.0508
▁try	-9.05081
▁Blanche	-9.05085
▁sing	-9.05108
▁quite	-9.05175
▁Hand	-9.05179
▁copie	-9.0523
To	-9.05247
▁red	-9.05271
▁takes	-9.05445
▁turned	-9.05522
▁Herzen	-9.05553
▁allein	-9.05719
▁hang	-9.05761
▁figure	-9.05881
▁heard	-9.06274
isch	-9.0636
ped	-9.06437
ha	-9.0688
▁Himmel	-9.07074
▁schöne	-9.07451
hr	-9.07494
▁di	-9.07599
▁sh	-9.0807
▁Nach	-9.08145
J	-9.0822
▁Haus	-9.08308
Yes	-9.0831
▁both	-9.08585
▁ent	-9.08634
▁Sardotopolis	-9.08871
▁among	-9.08872
▁lawyer	-9.08872
▁Mottka	-9.08885
▁including	-9.08885
▁Schneider	-9.08909
▁weiß	-9.08928
Tis	-9.08928
▁Y	-9.08945
▁gave	-9.08953
▁already	-9.08955
▁round	-9.0896
▁cold	-9.09012
▁also	-9.09033
ug	-9.09102
▁steht	-9.09176
▁took	-9.09191
▁crowds	-9.09301
▁Herrn	-9.0979
▁haben	-9.09901
v	-9.10097
▁stop	-9.10339
▁mo	-9.107
os	-9.11112
▁times	-9.11499
▁po	-9.11629
▁turns	-9.11654
▁thinking	-9.11657
ations	-9.12025
▁eat	-9.12204
ab	-9.12289
▁saying	-9.12315
▁need	-9.12362
▁office	-9.12524
▁wo	-9.12571
br	-9.12641
▁fish	-9.12838
▁hundred	-9.12871
▁public	-9.12871
▁secret	-9.12871
▁blood	-9.12871
▁chance	-9.12883
▁Broun	-9.12915
▁blue	-9.12925
▁slowly	-9.12984
▁began	-9.13
▁cost	-9.13019
▁drop	-9.13024
▁Queen	-9.13033
▁manner	-9.1318
▁sagen	-9.13269
ile	-9.13479
▁See	-9.13578
▁These	-9.14098
▁allen	-9.14105
▁Pa	-9.14225
▁per	-9.14499
▁zur	-9.14507
▁point	-9.14556
ick	-9.14614
you	-9.14645
▁pa	-9.14736
▁bo	-9.15346
▁lead	-9.15634
ite	-9.16007
gel	-9.16126
tor	-9.16419
▁ho	-9.16534
rie	-9.16619
▁Some	-9.16982
/	-9.17037
▁FROSCH	-9.17037
▁Gretchen	-9.17037
▁refund	-9.17037
▁Section	-9.17038
▁Blut	-9.17038
▁Komm	-9.17038
▁short	-9.17038
▁emotion	-9.17039
▁brought	-9.1704
▁marvelous	-9.17051
▁Father	-9.1706
▁big	-9.17107
▁bald	-9.17154
▁shoulders	-9.17287
▁lange	-9.17367
▁received	-9.17421
▁hall	-9.17459
heit	-9.1759
▁lose	-9.17742
H	-9.1785
AG	-9.17939
▁wind	-9.18093
▁low	-9.18387
▁youth	-9.18731
▁jene	-9.18782
▁run	-9.18795
▁Ma	-9.18818
faced	-9.19183
ze	-9.19832
zen	-9.19942
ions	-9.20023
▁act	-9.20103
ft	-9.20286
▁hell	-9.20376
▁la	-9.20472
fl	-9.20728
▁happen	-9.20902
uck	-9.20938
▁mad	-9.20968
▁Ra	-9.21238
▁SERVANT	-9.2133
que	-9.21353
Exit	-9.21385
▁Balmer	-9.21385
▁marshal	-9.21385
▁pocket	-9.21385
▁spirit	-9.21385
▁sometimes	-9.21386
▁small	-9.21386
▁large	-9.21388
▁fine	-9.21428
▁course	-9.21457
▁Natur	-9.21458
▁board	-9.21492
▁band	-9.21584
▁counter	-9.21721
rt	-9.2173
▁z	-9.21894
▁beat	-9.2201
▁Um	-9.22037
▁macht	-9.22192
▁seemed	-9.22279
app	-9.22359
▁fall	-9.22655
▁return	-9.22847
▁best	-9.22886
▁wa	-9.22921
NER	-9.23276
▁walking	-9.23448
aged	-9.23528
▁weit	-9.23541
vi	-9.23727
▁fast	-9.23879
▁groß	-9.23971
ust	-9.24314
day	-9.24367
ect	-9.24492
▁spring	-9.25052
B	-9.25227
▁dress	-9.25525
▁glass	-9.25637
▁ihre	-9.25874
▁electric	-9.25897
▁Fanny	-9.25931
▁Ginkel	-9.25931
▁Perhaps	-9.25931
▁Tobias	-9.25931
▁dreadful	-9.25931
▁orchestra	-9.25931
▁pleasure	-9.25931
▁support	-9.25931
▁Brust	-9.25931
▁bundle	-9.25931
▁reason	-9.25931
▁grave	-9.25931
▁knows	-9.25934
▁alive	-9.25935
▁Thus	-9.25956
ian	-9.2597
▁Bill	-9.25983
▁financier	-9.25997
▁located	-9.26009
▁fog	-9.26018
▁leg	-9.26025
▁With	-9.26032
▁game	-9.26045
▁einmal	-9.26075
▁neck	-9.26083
▁Mephistopheles	-9.26125
▁crime	-9.26154
She	-9.26234
▁past	-9.26234
▁sort	-9.26247
▁Dem	-9.26262
▁sehr	-9.26262
red	-9.26302
▁OR	-9.26415
eyed	-9.26482
ip	-9.26932
▁bra	-9.27069
ack	-9.27087
▁rings	-9.27103
ng	-9.27323
▁Denn	-9.27465
▁Don	-9.27533
▁bad	-9.27689
ich	-9.27748
▁subject	-9.27986
▁On	-9.28068
▁nose	-9.28542
▁Hab	-9.28822
1	-9.29354
▁fear	-9.30161
ein	-9.30164
▁burn	-9.30172
8	-9.30671
▁ALTMAYER	-9.30693
▁SIEBEL	-9.30693
▁associated	-9.30693
▁distributing	-9.30693
▁excellency	-9.30693
▁discover	-9.30693
▁Busen	-9.30694
▁captain	-9.30694
▁beautiful	-9.30695
▁eight	-9.30695
▁odd	-9.30696
▁fellow	-9.307
▁SOPHY	-9.3071
▁ewig	-9.30755
▁theater	-9.30764
▁finally	-9.30782
▁anybody	-9.30799
▁license	-9.30803
▁Look	-9.30808
▁reporter	-9.30867
▁shop	-9.30872
▁Take	-9.30875
▁pack	-9.30986
▁sieht	-9.31065
▁land	-9.31077
▁kommt	-9.31327
▁win	-9.31358
▁sehn	-9.3161
tis	-9.31853
▁played	-9.31929
▁Im	-9.31937
▁seh	-9.3255
▁fl	-9.32732
▁Go	-9.3279
▁rise	-9.32827
▁week	-9.33045
mb	-9.33179
sche	-9.33424
▁within	-9.33669
▁Sa	-9.33823
▁heads	-9.33926
ime	-9.3395
▁je	-9.34274
▁towards	-9.34278
mal	-9.34373
▁eBooks	-9.34543
▁lang	-9.34568
▁books	-9.34676
use	-9.34709
2	-9.34988
▁dreams	-9.35077
▁Erde	-9.35255
There	-9.35369
▁eh	-9.35372
▁receive	-9.3554
▁power	-9.35671
▁six	-9.35671
▁scene	-9.35683
OU	-9.35689
▁Kraft	-9.35693
▁Milford	-9.35693
▁SCHÜLER	-9.35693
▁destroy	-9.35693
▁married	-9.35693
▁somebody	-9.35693
▁piano	-9.35693
▁Mike	-9.35693
▁check	-9.35693
▁account	-9.35693
▁moving	-9.35694
▁wilt	-9.35694
▁drift	-9.35695
▁läßt	-9.35695
▁until	-9.35696
▁nice	-9.357
▁gentleman	-9.357
▁policeman	-9.35704
▁stopped	-9.35709
▁Feuer	-9.35717
▁earth	-9.35717
▁nieder	-9.35719
▁kick	-9.3572
ff	-9.35729
▁please	-9.35731
▁inside	-9.35734
▁sent	-9.35737
▁Because	-9.35808
▁second	-9.35808
▁station	-9.35828
▁Nothing	-9.35858
▁passion	-9.35905
▁schön	-9.35929
▁forward	-9.35995
▁Can	-9.36011
▁rid	-9.36069
▁Schon	-9.36126
▁frei	-9.36425
▁...	-9.3645
▁smiled	-9.36487
▁jede	-9.36594
DER	-9.36663
▁speak	-9.36974
▁follow	-9.37133
▁lies	-9.37181
▁force	-9.37212
rat	-9.3729
ical	-9.37317
one	-9.37325
ger	-9.37426
elt	-9.37559
▁co	-9.37963
▁given	-9.38214
ink	-9.38253
read	-9.38315
la	-9.38376
▁seat	-9.38472
▁year	-9.38502
▁Weh	-9.3855
nk	-9.38787
▁ch	-9.38864
▁diesen	-9.38867
▁Wein	-9.39149
W	-9.39206
▁figures	-9.39216
cal	-9.3948
per	-9.39858
ub	-9.39881
▁Vo	-9.40039
▁joy	-9.40223
▁becomes	-9.40313
▁learn	-9.40443
▁Me	-9.40476
▁change	-9.4054
▁near	-9.40651
ure	-9.40652
!--	-9.40697
),	-9.40722
▁fiddle	-9.40771
▁hav	-9.40799
▁neue	-9.40882
▁Almighty	-9.40956
▁Prokofieff	-9.40956
▁attention	-9.40956
▁audience	-9.40956
▁cabaret	-9.40956
▁kept	-9.40956
▁number	-9.40956
▁truth	-9.40956
▁crawl	-9.40956
▁permission	-9.40957
▁obtain	-9.40958
▁above	-9.40958
▁sense	-9.40959
▁wenig	-9.40964
▁cause	-9.40967
▁stuff	-9.40971
▁dann	-9.40973
▁Augen	-9.40979
▁thus	-9.4098
▁several	-9.40982
▁hunt	-9.40989
▁mysterious	-9.40993
▁dr	-9.40996
▁eben	-9.41007
▁nature	-9.4101
▁sword	-9.41054
hen	-9.41103
▁Eure	-9.41118
▁noble	-9.41219
▁Dr	-9.41563
▁seid	-9.41565
▁following	-9.41648
▁passed	-9.4174
Allein	-9.4175
tz	-9.41779
▁fly	-9.41844
ated	-9.41922
▁chestnuts	-9.42029
▁talked	-9.42057
mp	-9.42161
▁bl	-9.42417
▁shake	-9.42439
▁einer	-9.42635
▁signs	-9.43041
igen	-9.43054
▁wit	-9.43169
▁reading	-9.43194
▁große	-9.43283
▁Ro	-9.43306
ally	-9.4362
▁John	-9.43824
▁War	-9.43877
▁automobile	-9.4389
ph	-9.44026
▁andern	-9.44046
▁clock	-9.44079
og	-9.4437
▁line	-9.44394
ho	-9.44701
▁imp	-9.44815
aß	-9.44836
▁star	-9.44838
▁gr	-9.45356
che	-9.45436
▁questions	-9.45545
▁wor	-9.45547
ial	-9.45556
▁close	-9.45571
0	-9.45644
out	-9.45693
▁Sin	-9.45697
▁despair	-9.45886
▁Tage	-9.46002
Sie	-9.46031
sten	-9.46083
▁count	-9.46387
▁breath	-9.46476
▁Durch	-9.46506
▁became	-9.46511
▁president	-9.46511
▁smoke	-9.46511
▁yesterday	-9.46511
▁Kopf	-9.46511
▁Über	-9.46511
▁affection	-9.46512
▁Life	-9.46512
▁everything	-9.46512
▁sweet	-9.46512
▁huge	-9.46512
▁glaub	-9.46513
▁vague	-9.46514
▁distribution	-9.46514
▁doubt	-9.46514
▁Pete	-9.46514
▁loose	-9.46522
▁wander	-9.46523
▁gentlemen	-9.46524
▁leicht	-9.46524
▁davon	-9.46526
▁PRO	-9.46527
▁Schritt	-9.46529
▁fair	-9.4653
▁indeed	-9.46534
▁clothes	-9.4654
▁From	-9.46541
▁madam	-9.46544
▁snow	-9.46548
▁format	-9.4656
▁darf	-9.46569
au	-9.46607
▁Paula	-9.46641
▁present	-9.46655
V	-9.46657
▁page	-9.46704
▁inform	-9.46889
cent	-9.46893
▁Hecht	-9.46928
▁jeder	-9.4693
▁prayer	-9.46952
und	-9.46984
▁happened	-9.47137
▁dressed	-9.47239
ult	-9.4727
▁Their	-9.47462
aught	-9.47524
▁Soll	-9.47525
▁By	-9.47607
.3	-9.4783
▁meet	-9.47836
ib	-9.47894
▁sa	-9.47935
ach	-9.48066
▁grin	-9.48141
▁letters	-9.48261
▁wanted	-9.48305
K	-9.48315
▁color	-9.4837
ler	-9.48948
▁care	-9.48949
▁less	-9.49169
▁pavement	-9.49777
ake	-9.50064
sk	-9.50193
▁vi	-9.50316
like	-9.50325
▁Art	-9.50418
▁meinen	-9.50944
▁Liebe	-9.51003
▁La	-9.51006
ige	-9.51583
nder	-9.51595
▁thin	-9.51738
ities	-9.5177
▁LI	-9.51825
rank	-9.51921
▁Frau	-9.51944
▁pick	-9.51944
these	-9.51984
▁reach	-9.52001
▁bow	-9.52029
▁Weib	-9.52141
▁order	-9.52291
▁break	-9.52393
▁BRANDER	-9.52394
▁GRETCHEN	-9.52394
▁Glück	-9.52394
▁Popapovitch	-9.52394
▁gewiß	-9.52394
▁imagine	-9.52394
▁nobody	-9.52394
▁trembling	-9.52394
▁villain	-9.52394
▁Great	-9.52394
▁thrill	-9.52394
▁memory	-9.52394
▁Kreis	-9.52395
▁Für	-9.52395
▁calm	-9.52397
▁contain	-9.524
▁probably	-9.52401
▁mistake	-9.52402
▁hinaus	-9.52411
▁dancers	-9.52415
▁somewhere	-9.52416
▁conductor	-9.52424
▁zurück	-9.52425
▁Lust	-9.52434
▁laß	-9.52441
▁sake	-9.52457
▁however	-9.52466
▁blow	-9.52504
▁artist	-9.52523
▁Sich	-9.52524
▁continued	-9.52556
▁Did	-9.52585
▁gibt	-9.52589
▁sighed	-9.52623
▁late	-9.52628
▁hören	-9.5268
▁ganze	-9.52684
▁schwer	-9.52732
▁ha	-9.52757
▁mist	-9.52787
ary	-9.52794
▁pale	-9.52796
▁Th	-9.52835
▁Say	-9.52862
▁Joe	-9.52929
▁shadows	-9.52957
▁thine	-9.53036
▁dare	-9.53046
▁mark	-9.53169
▁Ende	-9.53362
▁walls	-9.53763
my	-9.53792
ta	-9.5392
▁friends	-9.53937
wa	-9.53981
▁grown	-9.53992
▁sin	-9.54676
kt	-9.54882
▁li	-9.55104
▁roll	-9.55132
▁hit	-9.55535
▁remain	-9.55543
▁mirror	-9.55942
▁Heaven	-9.56013
▁flat	-9.56166
▁eng	-9.56672
ever	-9.5695
▁start	-9.5702
!—	-9.57255
▁rush	-9.57553
▁AND	-9.57809
▁Tr	-9.58163
▁ride	-9.58209
▁surprise	-9.58224
▁cry	-9.58264
▁confess	-9.5861
▁forgive	-9.58616
6	-9.58635
▁Sklarz	-9.58644
▁bridge	-9.58644
▁geschehn	-9.58644
▁virtue	-9.58644
▁funeral	-9.58644
▁third	-9.58644
▁easy	-9.58644
▁Martin	-9.58644
▁Good	-9.58644
▁proud	-9.58645
▁gray	-9.58645
▁Hör	-9.58646
▁criminal	-9.58647
▁Worm	-9.58648
▁Kann	-9.58648
▁river	-9.58652
▁etwa	-9.58653
▁baby	-9.58654
▁mouth	-9.58654
▁motionless	-9.58655
▁cents	-9.58662
▁forgotten	-9.58664
▁tongue	-9.58667
▁Nein	-9.58667
▁Liebchen	-9.58681
▁till	-9.58683
▁fail	-9.58685
▁highness	-9.587
▁fortune	-9.58708
▁yellow	-9.58733
▁solche	-9.58734
▁Salvini	-9.58749
▁arrived	-9.58761
▁Two	-9.58782
▁Wa	-9.58831
▁blink	-9.58846
▁filled	-9.5888
▁maybe	-9.58891
▁really	-9.58906
▁ice	-9.58948
▁machen	-9.59023
▁getan	-9.59054
ative	-9.59089
▁sight	-9.59102
▁Gar	-9.59182
▁seek	-9.5938
▁Bei	-9.59469
▁Hat	-9.59709
▁sonst	-9.59722
ang	-9.59761
▁card	-9.59909
lang	-9.59974
▁died	-9.6009
light	-9.60141
ism	-9.60323
▁months	-9.60452
▁asking	-9.60455
▁steps	-9.60975
▁manche	-9.61121
cken	-9.61131
▁nod	-9.61162
▁lover	-9.61291
ious	-9.61321
▁sorrow	-9.61527
iert	-9.6158
▁police	-9.62001
yond	-9.62018
auf	-9.62063
▁aller	-9.62231
▁legs	-9.6228
zt	-9.62389
▁ear	-9.62524
▁phrase	-9.62579
▁critic	-9.62609
▁sign	-9.62663
▁beside	-9.62664
▁Bo	-9.62815
▁mußt	-9.62843
▁building	-9.62883
▁pen	-9.62928
lly	-9.62939
▁officer	-9.63248
▁sc	-9.63322
let	-9.63739
▁Lebens	-9.63811
▁boys	-9.63813
▁komm	-9.63959
nother	-9.63976
ster	-9.6404
nform	-9.64328
▁murder	-9.6447
▁papers	-9.64533
lieb	-9.6454
komm	-9.6464
Project	-9.64685
▁carry	-9.64692
▁Seele	-9.64807
▁distribute	-9.64905
▁Arm	-9.64915
▁Sinn	-9.6499
Here	-9.64994
▁age	-9.65093
ition	-9.65132
ard	-9.65172
▁lieg	-9.65299
▁Zauber	-9.65303
▁Hölle	-9.6531
▁Policeman	-9.6531
▁afternoon	-9.6531
▁empty	-9.6531
▁future	-9.6531
▁könnt	-9.6531
▁medium	-9.6531
▁sergeant	-9.6531
▁Blick	-9.6531
▁Foster	-9.6531
▁Like	-9.6531
▁excited	-9.6531
▁lonely	-9.6531
▁unfortunate	-9.6531
▁juror	-9.65311
▁shame	-9.65311
▁curse	-9.65311
▁orator	-9.65311
▁doomed	-9.65312
▁race	-9.65312
▁visit	-9.65312
▁spoke	-9.65312
▁Ruh	-9.65323
▁halb	-9.65325
▁limit	-9.65326
▁ladyship	-9.65326
▁Tür	-9.65327
▁collection	-9.65331
▁north	-9.65332
▁crazy	-9.65332
▁important	-9.65335
▁coat	-9.65346
▁misery	-9.65347
▁oder	-9.65357
▁catch	-9.6536
▁Tang	-9.65369
▁nah	-9.65371
▁faint	-9.65376
▁stage	-9.65405
▁carefully	-9.65411
▁anyone	-9.6542
▁human	-9.655
▁Come	-9.65528
▁either	-9.65557
ence	-9.65573
▁gute	-9.65626
▁simple	-9.65647
▁anger	-9.65685
▁Meer	-9.65709
▁jedem	-9.65738
▁Ju	-9.65832
▁interesting	-9.65885
▁protected	-9.65924
▁Gut	-9.65964
▁dort	-9.65988
▁sell	-9.66008
▁zer	-9.66112
zz	-9.66117
gang	-9.66144
▁news	-9.66181
▁Tier	-9.66226
▁unge	-9.66244
hal	-9.66261
▁laughed	-9.66341
▁states	-9.66478
▁sagt	-9.66558
CH	-9.66647
▁alike	-9.66979
▁today	-9.6705
sam	-9.67111
▁Ei	-9.67202
▁drive	-9.6726
▁thoughts	-9.67311
▁wert	-9.6733
▁Am	-9.67444
▁IN	-9.67505
issen	-9.6751
▁Pla	-9.67791
dy	-9.67791
ci	-9.6792
bt	-9.67942
▁Lea	-9.6798
▁remains	-9.682
taking	-9.68283
▁sea	-9.68323
▁pavements	-9.68374
▁colors	-9.68421
pair	-9.68493
enden	-9.6858
lein	-9.68687
aus	-9.68768
▁real	-9.6892
▁erste	-9.69068
wi	-9.6915
▁sag	-9.69319
▁west	-9.69475
▁girls	-9.69744
asse	-9.69768
▁piece	-9.69789
▁tip	-9.69845
▁3	-9.69884
▁step	-9.70025
of	-9.70047
die	-9.70324
▁Tod	-9.70668
▁press	-9.70811
▁ach	-9.70895
raus	-9.71119
▁ideas	-9.71241
▁Lieb	-9.71324
▁draw	-9.71528
eht	-9.71538
AT	-9.71542
ohne	-9.71773
4	-9.71791
_	-9.71796
▁perform	-9.7192
▁protect	-9.71927
▁fix	-9.71931
▁creat	-9.71966
▁liebe	-9.71992
▁Freude	-9.72074
▁raise	-9.72102
apt	-9.72105
▁fo	-9.72138
fall	-9.72189
▁kill	-9.72201
▁instant	-9.72209
▁worth	-9.72245
▁except	-9.72263
My	-9.72351
ping	-9.72356
▁sure	-9.72374
▁address	-9.72383
▁save	-9.72396
▁rub	-9.72405
▁favor	-9.72447
▁Mag	-9.72451
▁Feodor	-9.72453
▁concern	-9.72453
▁innocence	-9.72453
▁trouble	-9.72453
▁Chinese	-9.72453
▁Gefühl	-9.72453
▁Mädchen	-9.72453
▁background	-9.72453
▁buried	-9.72453
▁group	-9.72453
▁length	-9.72453
▁official	-9.72453
▁ourselves	-9.72453
▁saloon	-9.72453
▁study	-9.72453
▁terror	-9.72453
▁wrong	-9.72453
▁credit	-9.72453
▁family	-9.72453
▁gleam	-9.72453
▁silver	-9.72453
▁faßt	-9.72454
▁plot	-9.72454
▁Most	-9.72455
▁grass	-9.72455
▁Thousand	-9.72456
▁Dutch	-9.72457
▁busy	-9.72457
▁addition	-9.72459
▁running	-9.7246
▁claim	-9.72462
▁sentence	-9.72463
▁replace	-9.72464
▁thick	-9.72464
▁making	-9.72466
▁jazz	-9.72468
▁hoff	-9.72469
▁Billings	-9.72478
▁wheel	-9.72492
▁getting	-9.72492
▁during	-9.72493
▁desire	-9.72495
▁hotel	-9.72496
hould	-9.7251
▁adventure	-9.72513
▁shoot	-9.72557
▁Old	-9.72576
▁sink	-9.72614
▁fa	-9.7263
AL	-9.72632
▁hält	-9.7267
▁Tell	-9.72675
omething	-9.7269
▁master	-9.72725
▁removed	-9.72739
go	-9.72791
II	-9.72825
▁stick	-9.72843
▁remind	-9.72862
▁Ben	-9.72885
▁forever	-9.72899
▁angel	-9.72906
▁later	-9.72933
▁created	-9.72943
▁ought	-9.7296
▁weeping	-9.72968
▁seize	-9.73119
▁hearts	-9.73247
▁hide	-9.73291
they	-9.73295
▁send	-9.73301
after	-9.73304
▁umbrellas	-9.73345
ON	-9.73353
▁party	-9.73369
▁green	-9.73417
▁gehen	-9.73595
▁often	-9.73598
▁waiter	-9.73853
▁unsre	-9.73888
▁ball	-9.74046
▁cars	-9.74119
▁watching	-9.74719
▁cr	-9.74778
▁dran	-9.74827
▁se	-9.74921
line	-9.75198
cle	-9.75783
▁bar	-9.75797
opp	-9.75912
▁fühl	-9.76041
rung	-9.76075
ei	-9.76355
cy	-9.76417
▁heran	-9.76488
▁bed	-9.76802
▁dull	-9.76985
za	-9.77032
▁th	-9.77048
▁irr	-9.77197
bar	-9.77281
▁creature	-9.77504
▁plu	-9.77628
▁State	-9.77666
▁voll	-9.77689
not	-9.77763
▁fe	-9.77944
▁pu	-9.77961
▁De	-9.78
▁herein	-9.78349
▁doing	-9.78453
▁interest	-9.78857
▁sub	-9.78935
lor	-9.79071
▁Wort	-9.79141
▁ill	-9.79316
throw	-9.79418
▁mach	-9.79539
who	-9.79619
▁explain	-9.79639
fully	-9.79767
▁Lied	-9.79856
▁ob	-9.7987
ough	-9.79888
▁sudden	-9.79905
stra	-9.79909
some	-9.80052
▁approach	-9.8012
führ	-9.80122
▁CHOR	-9.80143
▁difficult	-9.80146
▁easily	-9.80146
▁GEIST	-9.80146
▁club	-9.80146
▁company	-9.80146
▁plain	-9.80146
▁prepare	-9.80146
▁thirty	-9.80146
▁Dapper	-9.80146
▁Kunst	-9.80146
▁Tommy	-9.80146
▁dinner	-9.80146
▁Sophy	-9.80146
▁living	-9.80146
▁wedding	-9.80146
▁shirt	-9.80146
▁bodies	-9.80146
▁Baron	-9.80146
▁honest	-9.80146
▁blind	-9.80147
▁Anderson	-9.80147
▁mercy	-9.80147
▁below	-9.80147
▁genius	-9.80147
▁Glas	-9.80148
▁scheint	-9.80149
▁bedroom	-9.8015
▁fancy	-9.80151
▁statu	-9.80151
▁zwei	-9.80152
▁marry	-9.80152
▁compliance	-9.80152
▁genug	-9.80154
▁escape	-9.80156
▁beginning	-9.80156
▁throne	-9.80157
▁middle	-9.8016
▁loop	-9.80161
▁bound	-9.80161
▁prim	-9.80162
▁cool	-9.80168
▁seven	-9.8017
▁hinein	-9.80181
▁somewhat	-9.80186
▁Recht	-9.80189
▁share	-9.80192
▁drum	-9.802
▁New	-9.80201
▁spot	-9.80208
▁grand	-9.80209
▁los	-9.80214
schlag	-9.8023
▁moon	-9.80276
▁tausend	-9.80277
▁Buch	-9.8029
▁Never	-9.80298
▁single	-9.80334
▁dumb	-9.80334
▁hopes	-9.80343
OR	-9.80343
▁charming	-9.80371
▁Just	-9.80372
▁neu	-9.80426
▁After	-9.80488
▁mah	-9.80499
▁wink	-9.80517
▁duty	-9.80552
▁geben	-9.8056
▁Only	-9.80574
▁distributed	-9.80621
pr	-9.80675
▁killed	-9.80676
▁volunteers	-9.80686
▁junge	-9.80696
▁alte	-9.8078
▁none	-9.80793
▁bowed	-9.80805
▁tut	-9.80821
▁produce	-9.80829
▁werden	-9.80831
▁freely	-9.80872
▁editions	-9.80897
▁crying	-9.80923
▁demand	-9.80942
ill	-9.81001
▁Auch	-9.8102
▁fearful	-9.81088
▁tonight	-9.81226
▁Bin	-9.81325
▁holder	-9.81605
▁passing	-9.81645
▁stared	-9.81737
▁hohe	-9.8183
▁known	-9.81832
▁writes	-9.81841
▁welche	-9.81852
▁Hexen	-9.81863
▁ganzen	-9.82007
IES	-9.82081
ened	-9.82081
▁feelings	-9.82408
vor	-9.82499
bre	-9.82558
▁tone	-9.82655
▁brings	-9.82658
▁Flu	-9.8288
▁arme	-9.82956
▁ears	-9.83297
▁owner	-9.83404
old	-9.83414
▁pre	-9.83685
▁wear	-9.83708
ating	-9.83784
So	-9.838
ls	-9.84205
▁whi	-9.84243
G	-9.84328
zo	-9.84514
▁Hu	-9.84634
▁Zw	-9.84657
▁br	-9.84867
▁Ta	-9.85028
▁runs	-9.85065
▁points	-9.85312
▁offer	-9.85394
▁Sei	-9.85546
▁kleine	-9.85559
▁tin	-9.85817
▁ex	-9.85947
illa	-9.86022
▁Co	-9.8614
▁wer	-9.86165
▁unser	-9.86504
▁RE	-9.8666
▁verg	-9.86669
▁mi	-9.86823
▁Au	-9.87068
night	-9.87093
uff	-9.87336
Y	-9.87367
▁wild	-9.87481
▁iron	-9.8761
That	-9.87852
born	-9.87884
How	-9.87924
▁bis	-9.87928
hold	-9.87942
▁paint	-9.87974
oc	-9.8799
hall	-9.88047
▁roast	-9.88177
▁serious	-9.88208
▁clear	-9.88221
▁bright	-9.88221
▁nervous	-9.88228
▁shuffl	-9.88407
▁fat	-9.88463
▁fool	-9.88473
▁royal	-9.88479
▁Götter	-9.88479
▁hurried	-9.88479
▁rhythm	-9.88479
▁society	-9.88479
Connor	-9.88479
•	-9.88479
▁***	-9.88479
▁Gustave	-9.88479
▁Juchhe	-9.88479
▁STIMME	-9.88479
▁agitation	-9.88479
▁chorus	-9.88479
▁drängt	-9.88479
▁individual	-9.88479
▁knock	-9.88479
▁müssen	-9.88479
▁neighbors	-9.88479
▁providing	-9.88479
▁skull	-9.88479
▁treasure	-9.88479
▁unhappy	-9.88479
▁website	-9.88479
starting	-9.88479
▁ANY	-9.88479
▁cornet	-9.88479
▁jetzt	-9.88479
▁evil	-9.88479
▁oath	-9.88479
▁search	-9.88479
▁requirements	-9.88479
▁kurz	-9.8848
▁mud	-9.8848
▁mystery	-9.8848
▁utter	-9.8848
ING	-9.88481
▁guess	-9.88481
▁common	-9.88483
CHEN	-9.88484
▁cried	-9.88485
▁fight	-9.88485
▁frown	-9.88486
▁suppose	-9.88487
▁jump	-9.88487
▁fault	-9.88489
▁professor	-9.88489
▁Teil	-9.8849
▁exile	-9.88491
▁favorite	-9.88492
▁harm	-9.88493
▁Platz	-9.88494
▁bride	-9.88495
▁amazing	-9.88498
▁dying	-9.88503
▁bereit	-9.88505
▁Bock	-9.88506
▁SOPHIA	-9.88511
▁delight	-9.88512
▁anywhere	-9.88518
ECT	-9.88526
uß	-9.88533
▁Menge	-9.88543
▁south	-9.88544
▁HEXE	-9.88549
▁chamber	-9.88549
▁Prof	-9.88551
▁exp	-9.88555
▁laughter	-9.88559
▁mustache	-9.88563
▁pull	-9.88576
▁entirely	-9.88576
▁Vater	-9.88611
▁Füßen	-9.88615
▁sang	-9.88644
▁posted	-9.8867
▁accord	-9.88672
▁tried	-9.88677
▁wooden	-9.88765
▁worst	-9.88771
▁brain	-9.88771
▁displaying	-9.88779
▁Licht	-9.88784
▁although	-9.88798
▁giving	-9.88849
▁gal	-9.8885
▁greatest	-9.88854
▁sw	-9.88873
▁dozen	-9.88893
▁deal	-9.88895
▁online	-9.889
▁add	-9.88919
gra	-9.88945
▁beard	-9.8895
▁raised	-9.88959
▁inquired	-9.89011
▁Geister	-9.89069
▁watches	-9.8913
▁Dir	-9.89175
▁heute	-9.8919
FOR	-9.89259
▁kommen	-9.89281
▁noticed	-9.89435
We	-9.89452
▁Sinnen	-9.89466
▁grows	-9.89484
▁beach	-9.89487
▁deriv	-9.89505
▁Jews	-9.89534
▁Zeiten	-9.89569
▁fate	-9.89691
reich	-9.89731
▁Herren	-9.8996
▁singing	-9.89967
▁efforts	-9.90003
▁J	-9.9009
▁seht	-9.90129
▁hot	-9.90293
▁ging	-9.90301
tet	-9.90407
▁lighted	-9.9054
▁copying	-9.90599
▁tro	-9.906
▁en	-9.90847
set	-9.90852
Going	-9.91397
▁klein	-9.9152
so	-9.91533
▁Ho	-9.91613
▁officers	-9.9191
lin	-9.92031
▁Nor	-9.92227
tri	-9.92336
▁Tor	-9.92366
▁pan	-9.92588
▁lo	-9.92625
▁lines	-9.92639
Do	-9.92822
▁Men	-9.92895
▁seats	-9.92901
▁hätte	-9.92995
▁Seh	-9.9336
▁sl	-9.93453
▁rich	-9.93577
▁fan	-9.93821
tag	-9.94149
▁aber	-9.94621
▁move	-9.94631
ons	-9.94921
▁month	-9.9496
▁fees	-9.9498
▁sounds	-9.95094
iß	-9.95458
▁weh	-9.95583
▁Jo	-9.96016
▁Pf	-9.96223
▁Weg	-9.96263
ette	-9.96273
io	-9.96322
ache	-9.96427
5	-9.96757
▁pray	-9.96842
▁tun	-9.96867
FERDINAND	-9.96944
▁Leib	-9.96947
One	-9.96955
This	-9.96961
▁names	-9.96984
▁whe	-9.9704
▁accept	-9.97064
▁ruin	-9.97069
by	-9.9711
▁wide	-9.97151
ire	-9.97198
five	-9.97249
▁feeling	-9.97328
▁slow	-9.97341
▁fell	-9.97348
fore	-9.97371
▁discuss	-9.97386
▁stretch	-9.97403
qui	-9.97425
▁non	-9.97426
ED	-9.97427
▁blank	-9.97467
▁König	-9.97468
▁Ent	-9.97479
▁thinks	-9.975
umm	-9.97501
▁gentle	-9.97537
Go	-9.97562
▁Afternoons	-9.9757
▁Augenblick	-9.9757
▁English	-9.9757
▁Haywood	-9.9757
▁enjoy	-9.9757
▁possible	-9.9757
▁twelve	-9.9757
Twenty	-9.9757
▁Bravo	-9.9757
▁Doktor	-9.9757
▁Peewee	-9.9757
▁caricature	-9.9757
▁clerk	-9.9757
▁committed	-9.9757
▁eternal	-9.9757
▁eternity	-9.9757
▁faith	-9.9757
▁neighborhood	-9.9757
▁strong	-9.9757
▁tobacco	-9.9757
neath	-9.9757
▁doctor	-9.9757
▁entreat	-9.9757
▁register	-9.9757
▁shelves	-9.9757
▁Schmuck	-9.9757
▁false	-9.9757
▁vorüber	-9.9757
▁wrote	-9.9757
▁cream	-9.9757
▁stories	-9.9757
▁Fenster	-9.9757
▁fantas	-9.9757
▁beauty	-9.97571
▁food	-9.97571
▁drama	-9.97571
▁debate	-9.97572
▁sorry	-9.97572
▁heißt	-9.97574
▁queer	-9.97574
▁lehr	-9.97574
▁respect	-9.97575
▁Bertha	-9.97575
▁movie	-9.97576
▁conduct	-9.97578
▁straight	-9.97579
▁argument	-9.9758
▁price	-9.9758
▁further	-9.9758
glück	-9.97587
▁Luft	-9.97589
▁Maybe	-9.97593
Ha	-9.97594
▁Would	-9.97594
▁procession	-9.97598
▁Still	-9.97599
▁cover	-9.97599
▁class	-9.97602
▁Speak	-9.97605
▁miss	-9.97608
▁grant	-9.97609
▁shoes	-9.97615
▁tritt	-9.97615
Shh	-9.97616
▁Abou	-9.97627
▁casually	-9.97631
▁handsome	-9.97634
▁vatches	-9.97636
▁musician	-9.97636
▁Judge	-9.97666
▁payment	-9.97666
▁conf	-9.97676
▁jail	-9.97699
▁join	-9.97701
▁direction	-9.97706
▁siehst	-9.97707
▁sweep	-9.97707
▁Away	-9.97727
▁interrupt	-9.97727
▁leather	-9.97727
All	-9.97728
Three	-9.97741
▁march	-9.97744
▁pour	-9.97765
▁vanished	-9.97782
▁pardon	-9.97789
▁Max	-9.97789
ible	-9.97805
▁leaning	-9.97841
▁coin	-9.97868
▁Spr	-9.97884
fa	-9.97892
ought	-9.97894
bild	-9.97958
▁jewels	-9.9796
▁soft	-9.97966
▁sah	-9.97981
▁hinter	-9.97991
▁Such	-9.97991
▁moved	-9.97993
▁weary	-9.98035
was	-9.98106
los	-9.98138
▁schw	-9.98211
▁Dein	-9.98307
▁remained	-9.9832
▁hint	-9.98321
▁Al	-9.98363
ual	-9.98399
▁date	-9.9847
▁aware	-9.98484
▁former	-9.98509
▁cat	-9.98566
▁returned	-9.98612
▁com	-9.98629
▁places	-9.98782
string	-9.98818
▁enters	-9.98833
▁ma	-9.9889
▁lock	-9.99065
▁listened	-9.99216
▁ca	-9.99416
▁noises	-9.99509
▁liebt	-9.9954
SE	-9.99598
▁ran	-9.99829
▁ersten	-9.99896
▁tief	-10.0005
▁remembered	-10.0012
▁Pro	-10.0016
▁heil	-10.0029
▁fre	-10.0064
▁thrown	-10.0068
▁creatures	-10.0082
now	-10.0097
how	-10.0105
▁cor	-10.011
▁plays	-10.0115
LL	-10.0117
▁volle	-10.013
itting	-10.0133
weg	-10.0134
▁habe	-10.0165
▁arise	-10.0199
fence	-10.0215
raw	-10.0217
▁meant	-10.0221
▁vast	-10.0231
▁Ka	-10.0249
▁wave	-10.0263
▁su	-10.0268
▁weeks	-10.0269
ES	-10.0306
▁beg	-10.0312
itter	-10.0313
igt	-10.0314
Ab	-10.0316
▁returns	-10.0325
▁falls	-10.0329
ple	-10.0334
!”	-10.0338
▁lieb	-10.0353
▁spen	-10.0356
hm	-10.0356
main	-10.0359
▁base	-10.0362
yes	-10.0369
▁ze	-10.0387
for	-10.0398
dic	-10.0427
ward	-10.043
▁hangs	-10.0437
our	-10.0447
mon	-10.0451
▁report	-10.0453
▁bu	-10.0456
uh	-10.0464
ied	-10.0464
▁dust	-10.0473
▁tremble	-10.048
▁command	-10.0487
▁appears	-10.0487
▁Zi	-10.0489
well	-10.0492
▁Alt	-10.0497
▁image	-10.0507
▁fit	-10.0514
ritt	-10.0555
sinn	-10.0581
nis	-10.0605
▁stranger	-10.0612
ade	-10.0612
lum	-10.0622
even	-10.0632
mber	-10.0638
bl	-10.0658
▁thank	-10.0671
dom	-10.0684
keit	-10.0685
▁Russia	-10.0694
▁weep	-10.0697
▁arrest	-10.0708
▁glance	-10.0713
▁Mensch	-10.0715
▁remove	-10.0717
▁begins	-10.0721
▁ju	-10.0735
▁gloom	-10.0736
▁slight	-10.0742
leben	-10.0747
▁travel	-10.0752
spiel	-10.0756
▁trans	-10.0757
text	-10.0757
▁Instead	-10.0757
▁London	-10.0757
▁MacVeagh	-10.0757
▁Nobody	-10.0757
▁VALENTIN	-10.0757
▁banquet	-10.0757
▁bathtub	-10.0757
▁beloved	-10.0757
▁brother	-10.0757
▁chariot	-10.0757
▁choice	-10.0757
▁coffin	-10.0757
▁conscience	-10.0757
▁desperate	-10.0757
▁experience	-10.0757
▁hilft	-10.0757
▁husband	-10.0757
▁janitor	-10.0757
▁judgment	-10.0757
▁melodrama	-10.0757
▁monstrous	-10.0757
▁mortal	-10.0757
▁preserve	-10.0757
▁purpose	-10.0757
▁sacrifice	-10.0757
▁smiling	-10.0757
▁teeth	-10.0757
▁whatsoever	-10.0757
▁cheap	-10.0757
▁courage	-10.0757
▁opera	-10.0757
▁prison	-10.0757
▁schnell	-10.0757
▁violent	-10.0757
▁Sometimes	-10.0757
▁collar	-10.0757
▁presence	-10.0757
▁thrust	-10.0757
▁ambition	-10.0757
▁factory	-10.0757
▁knives	-10.0757
▁gesture	-10.0757
▁illusion	-10.0757
▁George	-10.0757
▁social	-10.0757
▁summer	-10.0757
▁clean	-10.0757
▁content	-10.0757
▁foot	-10.0757
▁Stay	-10.0757
▁forehead	-10.0757
▁rose	-10.0757
▁THIS	-10.0757
▁pipe	-10.0757
▁dignity	-10.0757
▁Jammer	-10.0757
▁revolution	-10.0757
▁serve	-10.0757
▁frightened	-10.0757
▁advance	-10.0758
▁ground	-10.0758
▁breit	-10.0758
▁novel	-10.0758
▁poison	-10.0758
▁links	-10.0758
▁Gesicht	-10.0758
▁Pudel	-10.0758
▁plunge	-10.0758
▁Creator	-10.0758
▁NOT	-10.0758
▁doorway	-10.0758
field	-10.0759
▁rule	-10.0759
▁property	-10.0759
▁Engel	-10.0759
▁Bring	-10.0759
▁possession	-10.0759
▁stiff	-10.0759
▁confusion	-10.0759
▁track	-10.0759
▁glorious	-10.076
▁Feld	-10.076
▁peer	-10.076
▁besser	-10.076
▁ballad	-10.076
▁ladies	-10.076
▁insult	-10.0762
▁dame	-10.0762
▁self	-10.0763
▁lieben	-10.0763
▁path	-10.0763
▁Garten	-10.0763
▁pretend	-10.0763
▁vice	-10.0763
▁swell	-10.0764
▁nobs	-10.0764
▁Warum	-10.0764
▁worse	-10.0764
▁None	-10.0765
▁Felsen	-10.0765
▁applause	-10.0766
▁auctioneer	-10.0766
▁eure	-10.0767
▁parent	-10.0768
▁BE	-10.0768
▁Kein	-10.0768
▁loud	-10.0768
▁suh	-10.077
▁4	-10.077
▁reflection	-10.0772
welt	-10.0772
▁drunk	-10.0772
▁suspicion	-10.0774
▁hastily	-10.0776
▁Nay	-10.0776
▁mission	-10.0776
▁merely	-10.0777
▁Jahr	-10.0777
▁rent	-10.0779
▁lying	-10.078
▁famous	-10.0781
▁reg	-10.0782
▁chin	-10.0789
▁Welch	-10.0792
▁mumbl	-10.0792
▁appli	-10.0797
▁Land	-10.0799
▁wishes	-10.08
trag	-10.08
▁pauses	-10.08
▁rear	-10.0807
▁arrested	-10.0807
▁whistle	-10.0807
▁führen	-10.0807
▁hurrying	-10.0807
▁stehn	-10.0813
▁holy	-10.0819
▁schaffen	-10.0824
▁Band	-10.0825
▁weiter	-10.0827
▁Leibe	-10.0827
ole	-10.0827
▁top	-10.0829
mail	-10.0832
▁werde	-10.0834
▁born	-10.0838
▁tomorrow	-10.0838
▁ven	-10.084
▁wollt	-10.0841
▁hört	-10.0842
▁leben	-10.0844
▁sold	-10.0846
▁gaze	-10.0849
▁hardly	-10.0851
▁_	-10.0851
▁leid	-10.0854
▁inquire	-10.0854
▁followed	-10.0857
▁alley	-10.086
▁fallen	-10.0861
▁ring	-10.0873
▁meeting	-10.0874
▁froh	-10.0878
del	-10.0893
▁heilig	-10.0896
▁falling	-10.0905
▁flowers	-10.0916
▁cap	-10.0927
▁answered	-10.0927
hnen	-10.0934
▁bills	-10.0943
▁bonds	-10.0943
▁asks	-10.0954
▁opened	-10.0965
▁besten	-10.0971
▁laughing	-10.0993
▁Sam	-10.0996
there	-10.0996
REA	-10.1007
▁inspir	-10.1015
EN	-10.1019
▁reports	-10.1032
colored	-10.1034
▁Hear	-10.1047
▁fli	-10.1051
▁Tanz	-10.1064
ctive	-10.1094
▁dog	-10.1104
▁grün	-10.1108
▁moments	-10.1133
▁Meine	-10.1141
▁pieces	-10.1148
MIT	-10.1171
ndet	-10.1172
▁besides	-10.1178
▁Ding	-10.118
▁starts	-10.1241
▁Son	-10.1248
lust	-10.1255
▁stars	-10.1263
▁automobiles	-10.1267
▁clocks	-10.1268
▁damn	-10.1278
▁Up	-10.129
▁sca	-10.1303
▁Ort	-10.1323
▁user	-10.1449
EL	-10.1457
▁Vi	-10.1468
▁entit	-10.147
▁stops	-10.1479
mor	-10.1483
RS	-10.1483
▁acht	-10.1483
alle	-10.1484
his	-10.1489
▁würde	-10.1491
▁Pr	-10.1499
▁wants	-10.1514
▁misfortune	-10.1598
tions	-10.1645
▁wall	-10.1646
unter	-10.1672
wärt	-10.1673
▁möchte	-10.1699
▁answers	-10.1701
▁inch	-10.1713
▁Geb	-10.1715
▁sollt	-10.1729
▁Le	-10.1733
cable	-10.1746
▁perfect	-10.1749
▁tattoo	-10.1752
ize	-10.176
▁studie	-10.1787
gleich	-10.1804
▁Flamme	-10.1804
Where	-10.1805
work	-10.1806
coming	-10.1806
(	-10.1806
tired	-10.1808
right	-10.1812
▁jo	-10.1816
▁alarm	-10.1816
▁lives	-10.1818
▁print	-10.1818
▁crack	-10.182
▁halt	-10.1826
▁glow	-10.1827
▁schau	-10.1829
CT	-10.1838
ichte	-10.1841
▁hung	-10.1849
qua	-10.1851
▁Jahre	-10.1852
God	-10.1856
iv	-10.186
▁quest	-10.1864
▁danger	-10.1865
▁process	-10.1865
▁forgot	-10.1865
▁Na	-10.1866
▁collect	-10.1866
▁cruel	-10.1866
Ö	-10.1867
▁character	-10.1867
ability	-10.1868
▁intellect	-10.1868
▁require	-10.1868
▁Gedanken	-10.1868
▁breast	-10.1868
▁brilliant	-10.1868
▁million	-10.1868
▁AGREE	-10.1868
▁Aphrodite	-10.1868
▁British	-10.1868
▁DAMAGE	-10.1868
▁Elliott	-10.1868
▁Mishkin	-10.1868
▁Seckertary	-10.1868
▁VALET	-10.1868
▁Zeichen	-10.1868
▁applaud	-10.1868
▁astonishment	-10.1868
▁chief	-10.1868
▁clarinet	-10.1868
▁district	-10.1868
▁equipment	-10.1868
▁figx	-10.1868
▁früh	-10.1868
▁grimace	-10.1868
▁hospital	-10.1868
▁intrigue	-10.1868
▁invitation	-10.1868
▁lantern	-10.1868
▁murmur	-10.1868
▁occasion	-10.1868
▁portières	-10.1868
▁servant	-10.1868
▁strumpet	-10.1868
▁trombone	-10.1868
▁trägt	-10.1868
▁uniform	-10.1868
▁Christmas	-10.1868
▁Coini	-10.1868
▁Gleich	-10.1868
▁Jugend	-10.1868
▁Marshal	-10.1868
▁bulletin	-10.1868
▁conceal	-10.1868
▁leap	-10.1868
▁memories	-10.1868
▁resign	-10.1868
▁scandal	-10.1868
▁promise	-10.1868
▁quiet	-10.1868
▁royalties	-10.1868
▁Paris	-10.1868
▁title	-10.1868
▁Straße	-10.1868
▁pride	-10.1868
▁trick	-10.1868
▁Madge	-10.1868
▁consent	-10.1868
▁funny	-10.1868
▁Park	-10.1868
schaft	-10.1868
▁Gesang	-10.1868
▁redistribut	-10.1868
▁wollen	-10.1868
▁joke	-10.1868
▁shining	-10.1868
▁design	-10.1868
▁health	-10.1868
▁blush	-10.1869
▁skin	-10.1869
▁miles	-10.1869
▁grinned	-10.1869
▁wagon	-10.1869
▁expression	-10.1869
▁language	-10.1869
▁Even	-10.1869
▁instance	-10.1869
▁moral	-10.1869
▁weak	-10.1869
▁Light	-10.1869
▁proper	-10.1869
▁despite	-10.1869
▁defective	-10.1869
▁Nebel	-10.187
62	-10.187
▁kaum	-10.187
▁scoundrel	-10.187
▁steigt	-10.187
▁general	-10.187
▁Island	-10.187
▁machine	-10.187
▁cease	-10.1871
hoose	-10.1872
▁original	-10.1872
.9.	-10.1872
▁understood	-10.1872
▁Lauf	-10.1873
▁Muß	-10.1874
▁creation	-10.1874
▁witness	-10.1874
▁block	-10.1875
▁boat	-10.1875
▁Drum	-10.1876
▁Once	-10.1876
▁Grab	-10.1877
▁powerful	-10.1878
▁Serg	-10.1878
▁bid	-10.1879
▁Wasser	-10.1879
▁fern	-10.188
▁bandit	-10.1881
▁bang	-10.1881
▁Hi	-10.1881
▁steh	-10.1883
▁Berg	-10.1885
▁chatter	-10.1886
▁maiden	-10.1886
eneral	-10.1887
▁useless	-10.1889
▁repeated	-10.1889
▁Whi	-10.189
▁smiles	-10.1891
▁opposite	-10.1891
▁cast	-10.1892
▁gloomy	-10.1892
▁nennen	-10.1892
▁disclaimer	-10.1893
▁Sterne	-10.1895
▁convert	-10.1897
numer	-10.1899
▁included	-10.19
▁prove	-10.1901
▁rack	-10.1904
▁wound	-10.1905
▁finished	-10.1906
▁instantly	-10.1908
▁fortunate	-10.1908
▁fur	-10.1909
▁cross	-10.1912
▁knees	-10.1917
▁reich	-10.1918
▁Love	-10.192
▁edle	-10.1922
▁May	-10.1922
▁schauen	-10.1925
count	-10.1927
▁feels	-10.1928
They	-10.1928
▁desk	-10.1929
▁hook	-10.1931
iddle	-10.1934
nach	-10.1938
▁porch	-10.1941
▁interested	-10.1942
▁donate	-10.1944
▁oben	-10.1947
▁shapes	-10.1949
▁fiddler	-10.1955
▁plat	-10.196
ized	-10.1977
▁Miss	-10.1977
contact	-10.198
▁seated	-10.1982
▁gives	-10.1994
▁alten	-10.1997
▁Str	-10.1999
▁wilde	-10.2005
▁speaking	-10.2012
▁murderer	-10.2012
▁coppers	-10.2013
▁Ay	-10.2014
▁tune	-10.2021
time	-10.2025
....	-10.2032
▁ready	-10.2036
▁möcht	-10.204
▁waited	-10.2045
richt	-10.2077
▁fühle	-10.208
▁houses	-10.208
▁buying	-10.2083
▁nor	-10.2093
AN	-10.2099
▁keiner	-10.2099
▁songs	-10.211
▁Seid	-10.2115
▁Hm	-10.2116
aut	-10.2124
▁Sein	-10.2125
▁Car	-10.2131
olch	-10.2135
▁meaning	-10.2151
▁singt	-10.2163
.7	-10.2167
▁heut	-10.2167
▁legal	-10.2181
▁Ba	-10.219
aking	-10.2202
▁herum	-10.2205
iff	-10.222
▁solicit	-10.2233
ked	-10.2255
▁wears	-10.2257
▁playing	-10.2266
▁Quit	-10.2287
▁van	-10.2302
▁tips	-10.2309
▁rein	-10.2309
lay	-10.2317
▁30	-10.2327
▁weg	-10.2354
▁aufge	-10.2358
gar	-10.2384
biß	-10.2397
.1.	-10.2401
IG	-10.2404
gier	-10.2406
▁foreign	-10.2411
▁Himmels	-10.2417
test	-10.2419
▁ward	-10.2443
▁Johns	-10.2445
▁hätt	-10.2463
▁observe	-10.247
ckt	-10.2477
▁follows	-10.2485
▁ri	-10.2501
▁gu	-10.254
ossen	-10.2544
▁bind	-10.2547
▁parts	-10.2553
smal	-10.2561
.1	-10.2584
aid	-10.2604
hook	-10.2663
▁Uns	-10.2672
▁goldne	-10.2676
▁sigh	-10.2701
will	-10.2704
▁tiefe	-10.2705
rei	-10.2719
owed	-10.2746
▁gab	-10.2756
▁Volk	-10.2759
▁carrie	-10.278
▁weil	-10.2781
▁grins	-10.2783
can	-10.279
▁allem	-10.2802
hand	-10.2802
▁Har	-10.2815
rot	-10.2819
▁cases	-10.2825
part	-10.283
▁Hexe	-10.2838
dern	-10.2846
▁cheek	-10.2848
▁stone	-10.2852
▁noise	-10.2854
▁gen	-10.2856
▁chestnut	-10.2859
▁belong	-10.2859
▁finger	-10.2863
▁Cha	-10.2871
▁dat	-10.2885
▁pi	-10.2888
▁frag	-10.2898
▁Lo	-10.294
▁tear	-10.2943
land	-10.2958
Ho	-10.2969
▁Mus	-10.2969
▁pop	-10.2977
sman	-10.2987
▁sollte	-10.2991
▁hid	-10.2996
▁Mon	-10.3005
ably	-10.3013
▁frisch	-10.3017
Make	-10.3024
▁jung	-10.3029
▁brave	-10.3031
Z	-10.3047
what	-10.3049
▁süße	-10.3052
voll	-10.3053
▁letzte	-10.3054
Faust	-10.3055
▁hurry	-10.3055
▁führe	-10.3056
When	-10.3057
▁fold	-10.3059
room	-10.306
ICE	-10.3061
▁drei	-10.3066
▁wretch	-10.3068
▁expect	-10.3068
▁Schmerz	-10.3072
▁refuse	-10.3074
▁fill	-10.3074
▁deceive	-10.3077
house	-10.3078
▁song	-10.3079
▁games	-10.3086
▁wood	-10.3088
▁solemn	-10.3091
▁final	-10.3094
▁kiss	-10.3102
▁usual	-10.3103
▁Nachbar	-10.3104
▁sill	-10.3106
lug	-10.3106
pecial	-10.3112
▁rob	-10.3114
▁triumph	-10.3116
▁cheer	-10.3116
xcept	-10.3116
▁companion	-10.3118
öpf	-10.3118
QUE	-10.3118
▁Hoffnung	-10.3118
▁Anisfeld	-10.3118
▁Bruder	-10.3118
▁China	-10.3118
▁Crawford	-10.3118
▁Excellent	-10.3118
▁Gesellschaft	-10.3118
▁Gewalt	-10.3118
▁Knecht	-10.3118
▁Kuzick	-10.3118
▁Ludlow	-10.3118
▁Providence	-10.3118
▁Wär	-10.3118
▁affair	-10.3118
▁afraid	-10.3118
▁ashamed	-10.3118
▁avail	-10.3118
▁blaze	-10.3118
▁centuries	-10.3118
▁cloak	-10.3118
▁columns	-10.3118
▁confidence	-10.3118
▁depend	-10.3118
▁disgrace	-10.3118
▁elbow	-10.3118
▁everybody	-10.3118
▁excellent	-10.3118
▁explanation	-10.3118
▁gefäll	-10.3118
▁grotesque	-10.3118
▁horror	-10.3118
▁identif	-10.3118
▁incident	-10.3118
▁intelligentsia	-10.3118
▁invisible	-10.3118
▁limousine	-10.3118
▁method	-10.3118
▁opinion	-10.3118
▁prominent	-10.3118
▁purchase	-10.3118
▁sex	-10.3118
▁smoking	-10.3118
▁specifi	-10.3118
▁symbol	-10.3118
▁taxicabs	-10.3118
▁vengeance	-10.3118
▁village	-10.3118
▁zieht	-10.3118
▁Jerry	-10.3118
▁Spiegel	-10.3118
▁generations	-10.3118
▁idiot	-10.3118
▁infamy	-10.3118
▁roof	-10.3118
▁schlecht	-10.3118
▁Brauch	-10.3118
▁Kessel	-10.3118
▁furtive	-10.3118
▁impossible	-10.3118
▁passengers	-10.3118
▁request	-10.3118
▁vorbei	-10.3118
▁dabei	-10.3118
▁Traum	-10.3118
▁blame	-10.3118
▁frame	-10.3118
▁pennies	-10.3118
▁purse	-10.3118
▁silk	-10.3118
▁Wolf	-10.3118
▁quill	-10.3118
▁morgen	-10.3118
▁odor	-10.3118
▁Stadt	-10.3118
▁schwarz	-10.3118
▁burst	-10.3118
▁mechanism	-10.3118
▁float	-10.3118
▁prospect	-10.3118
▁horrible	-10.3118
▁justice	-10.3118
▁Trieb	-10.3118
▁tragen	-10.3118
▁shot	-10.3118
▁bones	-10.3119
▁lord	-10.3119
▁errand	-10.3119
▁permitt	-10.3119
▁service	-10.3119
▁$10	-10.3119
▁50	-10.3119
▁palace	-10.3119
▁hallway	-10.3119
▁Sammy	-10.3119
timid	-10.3119
▁gracious	-10.3119
▁position	-10.3119
▁temp	-10.3119
cient	-10.3119
▁represent	-10.3119
▁Mi	-10.312
▁umpah	-10.312
▁battered	-10.312
▁soiled	-10.312
▁jury	-10.312
IST	-10.312
umpty	-10.312
▁fresh	-10.312
▁seren	-10.3121
▁considerable	-10.3121
▁hither	-10.3121
▁spare	-10.3121
▁Every	-10.3122
▁swear	-10.3122
nail	-10.3122
▁tender	-10.3122
▁hinauf	-10.3122
▁bread	-10.3122
▁Wald	-10.3123
▁swarm	-10.3123
▁Poor	-10.3123
▁teach	-10.3123
▁attitude	-10.3123
▁agitated	-10.3123
▁marriage	-10.3123
▁Marthe	-10.3124
still	-10.3125
nker	-10.3125
▁debt	-10.3125
▁wissen	-10.3125
▁mock	-10.3125
▁cries	-10.3126
▁Dich	-10.3126
▁sitzt	-10.3127
▁genießen	-10.3127
▁HER	-10.3127
▁Schein	-10.3128
▁Dort	-10.3128
▁bull	-10.3129
▁alas	-10.313
▁Sachen	-10.313
▁direct	-10.313
▁freilich	-10.313
▁Gold	-10.3131
▁umher	-10.3131
▁blanket	-10.3133
▁glad	-10.3133
▁tick	-10.3134
▁damit	-10.3134
▁bless	-10.3135
▁wings	-10.3135
isa	-10.3135
▁crush	-10.3136
▁Surely	-10.3137
▁determined	-10.3138
▁gods	-10.3138
▁Grand	-10.3139
▁Gesellen	-10.3139
▁shivering	-10.314
▁inspect	-10.314
▁darkness	-10.314
▁dazu	-10.3141
▁mount	-10.3142
▁rote	-10.3142
▁varied	-10.3143
▁usually	-10.3143
▁approaches	-10.3144
▁stock	-10.3145
Turn	-10.3149
▁Van	-10.315
▁slightly	-10.315
▁fängt	-10.315
▁kam	-10.3152
.'"	-10.3154
▁Nase	-10.3156
▁betrayed	-10.3156
▁American	-10.3156
▁worthy	-10.3157
▁Sohn	-10.3159
▁necessary	-10.3159
▁pity	-10.316
▁Worte	-10.3161
▁roaster	-10.3165
▁willst	-10.3166
▁grau	-10.3166
▁wider	-10.3169
▁ACT	-10.3169
▁printed	-10.3175
▁Ä	-10.3176
▁hervor	-10.3177
▁lassen	-10.3178
▁Sinne	-10.318
▁sieh	-10.3181
▁Mor	-10.3183
▁pictures	-10.3185
▁ruined	-10.3189
▁bunte	-10.319
▁torn	-10.3191
▁plate	-10.3194
▁union	-10.3195
▁worm	-10.3196
▁Sieh	-10.3198
▁Russian	-10.3199
iness	-10.3199
auch	-10.32
▁Many	-10.3206
attered	-10.321
head	-10.321
lichkeit	-10.3211
bye	-10.3211
▁min	-10.3212
Mr	-10.322
▁changed	-10.3221
▁dime	-10.3222
▁birds	-10.3224
▁Does	-10.3225
▁reached	-10.3229
outh	-10.3233
▁fad	-10.3234
▁alter	-10.3236
▁exc	-10.3247
▁cut	-10.325
▁weight	-10.325
▁sollst	-10.3256
▁anzu	-10.3263
▁Freuden	-10.3266
▁kannst	-10.3267
▁talks	-10.3276
▁fassen	-10.3279
ather	-10.3285
▁lad	-10.3287
hang	-10.3298
▁plans	-10.3321
▁leading	-10.3322
▁wirst	-10.3339
▁paused	-10.334
recht	-10.3342
▁hanging	-10.3344
▁whispers	-10.3359
▁beating	-10.3372
▁cheeks	-10.3395
vari	-10.3409
▁misfortunes	-10.3433
▁Gras	-10.3434
▁bringt	-10.3467
▁commands	-10.3471
▁pal	-10.3477
▁brav	-10.3479
▁Leg	-10.3486
▁lovely	-10.35
ev	-10.3517
schein	-10.3534
LE	-10.3543
stick	-10.3553
▁stores	-10.3559
▁würd	-10.3563
▁holding	-10.3589
▁amus	-10.3596
rom	-10.3621
▁Wi	-10.3631
▁seas	-10.3632
▁Hund	-10.3642
▁critics	-10.3662
▁ehr	-10.3665
▁Po	-10.369
▁mirrors	-10.37
bra	-10.3717
▁jes	-10.3746
▁sto	-10.3756
▁bore	-10.3758
▁Höh	-10.3776
▁Spi	-10.3785
▁lap	-10.382
▁Mar	-10.3826
dated	-10.3852
amp	-10.3868
▁subjects	-10.3896
▁Con	-10.3907
pent	-10.3945
schwe	-10.3962
tain	-10.3964
schließen	-10.3983
lung	-10.3984
log	-10.4017
▁san	-10.4019
▁wann	-10.4041
▁Are	-10.4046
▁va	-10.4057
▁Eh	-10.4067
▁fla	-10.4142
▁alt	-10.4189
ante	-10.4207
▁regard	-10.4218
▁whisper	-10.4225
uft	-10.4233
▁notes	-10.4236
▁mere	-10.4257
▁Je	-10.4266
▁citizen	-10.4271
▁mask	-10.4272
▁dollar	-10.4274
▁effort	-10.4283
▁bill	-10.4287
▁bond	-10.4289
way	-10.4318
ously	-10.4343
▁tables	-10.4343
ould	-10.4348
▁fro	-10.4348
IS	-10.435
nob	-10.4356
▁fest	-10.4369
▁Gab	-10.4371
▁aid	-10.4371
▁Tiere	-10.4376
affen	-10.4379
ware	-10.4391
ential	-10.4398
gan	-10.4408
LA	-10.4415
morrow	-10.443
▁hatt	-10.4431
unden	-10.4438
▁await	-10.4439
▁accident	-10.4442
▁Bild	-10.4448
turning	-10.4452
thou	-10.4478
▁success	-10.448
Ä	-10.448
giving	-10.4482
After	-10.4482
clock	-10.4482
Mephistopheles	-10.4483
▁Name	-10.4483
▁quit	-10.4487
immer	-10.449
lassen	-10.4492
▁finish	-10.4497
wür	-10.4497
von	-10.45
umping	-10.4501
▁gaz	-10.4502
wirkt	-10.4502
▁plead	-10.4503
▁manicure	-10.4505
▁include	-10.4505
when	-10.4505
ückt	-10.4517
ption	-10.452
euer	-10.4521
venue	-10.4523
▁insist	-10.4527
▁sel	-10.4529
▁rubb	-10.4532
▁sentiment	-10.4537
ammer	-10.4544
▁Christ	-10.4546
▁$1	-10.4546
itude	-10.4546
▁schweb	-10.4546
▁cigar	-10.4546
▁$5	-10.4547
▁execut	-10.4547
MENT	-10.4547
▁Actors	-10.4547
▁Greek	-10.4547
▁Kräfte	-10.4547
▁Remember	-10.4547
▁Wahrheit	-10.4547
▁Williams	-10.4547
▁admirable	-10.4547
▁advantage	-10.4547
▁asleep	-10.4547
▁casket	-10.4547
▁curtain	-10.4547
▁delicate	-10.4547
▁depahtment	-10.4547
▁distracted	-10.4547
▁editor	-10.4547
▁employment	-10.4547
▁excitement	-10.4547
▁gewesen	-10.4547
▁hostess	-10.4547
▁identical	-10.4547
▁indignation	-10.4547
▁medieval	-10.4547
▁midnight	-10.4547
▁nickel	-10.4547
▁politely	-10.4547
▁receipt	-10.4547
▁regularly	-10.4547
▁research	-10.4547
▁romantic	-10.4547
▁sacred	-10.4547
▁suicide	-10.4547
▁telephone	-10.4547
▁thyself	-10.4547
▁trefflich	-10.4547
▁vergebens	-10.4547
▁verlieren	-10.4547
▁victim	-10.4547
▁wisdom	-10.4547
conscious	-10.4547
▁Death	-10.4547
▁EX	-10.4547
▁Frosch	-10.4547
▁Hände	-10.4547
▁Lippe	-10.4547
▁Release	-10.4547
▁arose	-10.4547
▁focus	-10.4547
▁minister	-10.4547
▁minyon	-10.4547
▁näher	-10.4547
▁pronounce	-10.4547
▁smell	-10.4547
▁trifle	-10.4547
▁violin	-10.4547
▁Daughter	-10.4547
▁Everything	-10.4547
▁Lucky	-10.4547
▁amusement	-10.4547
▁countenance	-10.4547
▁entrance	-10.4547
▁farewell	-10.4547
▁gegeben	-10.4547
▁ghost	-10.4547
▁groan	-10.4547
▁prize	-10.4547
▁rock	-10.4547
▁zusammen	-10.4547
▁Blumen	-10.4547
▁Wonne	-10.4547
▁fließen	-10.4547
▁implore	-10.4547
▁shriek	-10.4547
▁situation	-10.4547
▁Mercy	-10.4547
▁Schwelle	-10.4547
▁Zeug	-10.4547
▁Grund	-10.4547
▁Kleide	-10.4547
▁Wunder	-10.4547
▁impression	-10.4547
▁rotten	-10.4547
▁Glut	-10.4547
▁eleven	-10.4547
▁skip	-10.4547
▁truck	-10.4547
eputy	-10.4547
▁sucker	-10.4547
▁abandon	-10.4547
▁match	-10.4547
▁German	-10.4547
▁compassion	-10.4547
▁period	-10.4547
▁space	-10.4547
▁hesitate	-10.4547
▁niemand	-10.4547
▁ripples	-10.4547
▁wealth	-10.4547
▁school	-10.4547
▁Court	-10.4547
▁Schatz	-10.4547
▁busted	-10.4547
▁unusual	-10.4547
▁herbei	-10.4547
▁lebendig	-10.4547
▁veins	-10.4547
▁sport	-10.4547
▁serving	-10.4547
▁Satan	-10.4547
▁Wahn	-10.4547
▁Dark	-10.4547
▁quick	-10.4547
▁Kerl	-10.4547
▁Weise	-10.4547
▁Izzy	-10.4547
▁actors	-10.4547
ATION	-10.4547
▁lobby	-10.4547
▁folg	-10.4547
▁exhibition	-10.4547
▁merry	-10.4547
▁flapper	-10.4547
▁reference	-10.4547
▁10	-10.4547
▁cloud	-10.4548
▁attach	-10.4548
▁carriage	-10.4548
▁necklace	-10.4548
▁blast	-10.4548
▁lesen	-10.4548
▁deliver	-10.4548
▁sketches	-10.4548
▁devour	-10.4548
▁dringt	-10.4548
▁miserable	-10.4548
▁lessons	-10.4548
▁donna	-10.4548
▁tumble	-10.4549
▁elation	-10.4549
setzen	-10.4549
▁pathos	-10.4549
▁bricht	-10.4549
▁parade	-10.4549
▁modernist	-10.4549
▁vision	-10.4549
▁EIN	-10.4549
▁invent	-10.4549
▁mild	-10.455
▁indicat	-10.455
▁klug	-10.455
▁chew	-10.455
▁Wood	-10.455
▁stamp	-10.4551
▁impos	-10.4551
Yeah	-10.4551
▁worry	-10.4551
▁rod	-10.4551
▁Morgen	-10.4551
▁pants	-10.4552
▁Jim	-10.4552
▁reward	-10.4552
▁gewo	-10.4552
graben	-10.4552
▁throat	-10.4552
▁extreme	-10.4552
▁wünscht	-10.4552
▁Stück	-10.4553
▁beads	-10.4553
▁Spiel	-10.4554
▁precious	-10.4554
▁overcome	-10.4554
▁sitzen	-10.4555
▁monotony	-10.4555
▁efficient	-10.4555
▁confession	-10.4555
▁winter	-10.4556
IVE	-10.4557
▁Woman	-10.4557
▁guilty	-10.4558
▁Wait	-10.4559
▁leer	-10.4559
▁awful	-10.4559
▁curl	-10.456
▁nowhere	-10.456
▁entertain	-10.4561
▁revi	-10.4561
▁spat	-10.4561
▁cup	-10.4561
▁Ziel	-10.4561
▁Gang	-10.4562
▁fifteen	-10.4562
▁schlägt	-10.4562
▁fahren	-10.4563
▁überall	-10.4563
▁vain	-10.4564
▁scent	-10.4565
▁startl	-10.4565
IDE	-10.4565
▁Frank	-10.4566
▁crooked	-10.4566
▁Mine	-10.4567
▁tower	-10.4569
▁Dear	-10.4569
▁brow	-10.457
▁sick	-10.457
▁threaten	-10.4571
pfer	-10.4572
▁quickly	-10.4572
▁DIRE	-10.4573
▁Long	-10.4574
▁hidden	-10.4576
▁blur	-10.4576
▁fury	-10.4576
▁Better	-10.4577
▁lure	-10.4578
urance	-10.458
▁worked	-10.458
▁konnte	-10.4582
▁rubber	-10.4582
▁leaned	-10.4582
▁aloud	-10.4582
▁abge	-10.4583
▁entered	-10.4583
▁bleibt	-10.4583
▁derby	-10.4583
▁palm	-10.4585
rzlich	-10.4585
▁shal	-10.4586
▁handful	-10.4587
▁sofa	-10.4588
▁Schaff	-10.4588
ürf	-10.4589
▁Mut	-10.4589
▁tö	-10.459
▁City	-10.4592
▁mass	-10.4592
▁TH	-10.4593
▁treten	-10.4593
IT	-10.4594
▁swing	-10.4595
▁deceived	-10.4595
▁whispered	-10.4599
▁rage	-10.46
▁Werk	-10.46
▁indes	-10.46
▁Leid	-10.46
▁Ri	-10.4601
Right	-10.4602
▁Stunden	-10.4603
▁wretched	-10.4605
▁halten	-10.4606
▁lebt	-10.4611
▁features	-10.4612
▁tattooed	-10.4614
▁5	-10.4614
▁Namen	-10.4614
▁tale	-10.4616
▁Meister	-10.4617
▁spend	-10.4623
▁drein	-10.4624
▁Sonne	-10.4624
▁amid	-10.4626
▁Gra	-10.4626
▁accepted	-10.4629
▁Flammen	-10.4631
▁gun	-10.4631
▁extend	-10.4631
▁tum	-10.4631
▁Ob	-10.4632
ship	-10.4632
ischen	-10.4633
▁nearer	-10.4634
▁ausge	-10.4635
▁practical	-10.4639
▁employee	-10.4641
▁Last	-10.4642
▁explained	-10.4645
▁surprised	-10.4653
▁lamps	-10.4654
▁horses	-10.4654
rising	-10.4658
▁saved	-10.466
▁army	-10.4661
▁Frauen	-10.4662
▁appl	-10.4663
zig	-10.467
form	-10.4671
▁lieber	-10.4681
▁regt	-10.4684
ease	-10.4687
ngst	-10.4695
▁keys	-10.4697
▁trees	-10.4697
▁Very	-10.47
▁Worten	-10.4708
▁Bett	-10.471
▁Music	-10.4717
▁gesch	-10.4719
▁jar	-10.4719
▁heraus	-10.4723
▁rank	-10.4729
▁figured	-10.4729
ically	-10.4734
▁Mond	-10.4736
▁Tru	-10.4736
▁expenses	-10.474
▁bringen	-10.4744
▁Bro	-10.4746
fort	-10.4758
▁fun	-10.4759
▁heavenly	-10.4759
00	-10.4775
▁kids	-10.4776
▁Erden	-10.4779
▁Thanks	-10.4783
▁parks	-10.4783
ently	-10.4795
lace	-10.4798
▁danced	-10.4806
▁personal	-10.4809
con	-10.4812
▁200	-10.4816
klang	-10.482
▁dollars	-10.4827
▁leader	-10.4828
If	-10.4842
▁Ni	-10.4843
▁NO	-10.4844
▁sau	-10.4845
ute	-10.4856
▁wonderful	-10.4868
Not	-10.487
▁lob	-10.487
▁stones	-10.4873
▁Erst	-10.4901
▁fühlt	-10.491
uous	-10.4921
▁fle	-10.4948
▁embrace	-10.4954
▁geb	-10.4955
▁images	-10.4959
▁strangers	-10.496
▁deed	-10.4973
Then	-10.4982
eech	-10.4996
▁moves	-10.5005
▁attend	-10.5026
pel	-10.503
BO	-10.5035
▁taste	-10.5037
seiz	-10.5055
▁wach	-10.5071
Plain	-10.5103
very	-10.5104
ik	-10.511
echs	-10.5141
▁hie	-10.5158
▁phrases	-10.5183
▁holde	-10.5188
▁sorrows	-10.519
TO	-10.5208
▁Heavens	-10.5229
abel	-10.5241
pit	-10.5287
▁böse	-10.5332
▁hate	-10.5343
▁stillen	-10.5346
▁speaks	-10.5378
▁geh	-10.5398
greif	-10.5428
mals	-10.5429
▁realize	-10.5473
▁noses	-10.548
eman	-10.5501
aw	-10.5504
▁meal	-10.5518
late	-10.5572
▁rec	-10.5624
▁grad	-10.5634
▁finde	-10.5659
wir	-10.5679
▁glüh	-10.5688
▁Verflucht	-10.5688
▁lei	-10.571
pac	-10.5755
▁rend	-10.5781
▁reine	-10.5806
iser	-10.5813
fangen	-10.5822
▁tu	-10.5845
▁stupid	-10.5846
haft	-10.5859
▁computer	-10.5937
▁welch	-10.5938
ley	-10.5938
▁park	-10.5941
▁damage	-10.5944
▁plan	-10.5946
▁increas	-10.5948
▁comp	-10.5952
phe	-10.5954
▁1	-10.5955
▁minute	-10.5957
▁nut	-10.5958
▁fed	-10.5962
▁flower	-10.5972
▁Thank	-10.5972
▁San	-10.5997
fend	-10.6004
cross	-10.6006
▁schä	-10.6014
▁spark	-10.603
▁werd	-10.6041
▁Bis	-10.6059
▁awake	-10.6062
macht	-10.6062
▁wollte	-10.607
nything	-10.6074
steckt	-10.6083
▁effect	-10.6089
lian	-10.6106
▁Freud	-10.6107
come	-10.611
lways	-10.6113
▁VI	-10.6113
▁reflect	-10.6135
▁suffer	-10.6145
where	-10.6146
für	-10.6146
warm	-10.6147
Leg	-10.6147
donate	-10.6147
master	-10.6149
Say	-10.615
▁Stunde	-10.615
Why	-10.615
LADY	-10.6151
▁display	-10.6151
neck	-10.6152
either	-10.6152
▁worship	-10.6153
believe	-10.6153
book	-10.6155
AND	-10.6156
▁possess	-10.6159
▁suspect	-10.616
▁Que	-10.6162
▁verschw	-10.6167
Die	-10.6172
draw	-10.6176
SC	-10.6178
hour	-10.6183
▁eager	-10.6184
▁firm	-10.6184
▁immediate	-10.6186
▁Tha	-10.6192
▁concept	-10.6193
Now	-10.6194
▁nehm	-10.6195
▁careful	-10.6196
▁derive	-10.6197
▁continu	-10.6204
▁nothin	-10.6204
NSE	-10.6206
▁gehe	-10.6208
▁oh	-10.6209
▁immortal	-10.621
▁defect	-10.6211
ittle	-10.6213
▁WARRANT	-10.6213
▁auction	-10.6213
▁$2	-10.6213
90	-10.6213
▁refer	-10.6213
articula	-10.6213
ästchen	-10.6213
▁peace	-10.6213
DEM	-10.6213
establish	-10.6213
hearted	-10.6213
é	-10.6213
▁Bäch	-10.6213
▁Cochran	-10.6213
▁Confess	-10.6213
▁DISTRIBUT	-10.6213
▁Everybody	-10.6213
▁French	-10.6213
▁Fürwahr	-10.6213
▁GUTENBERG	-10.6213
▁GUTENBERGTM	-10.6213
▁Gebärde	-10.6213
▁Gegenwart	-10.6213
▁Glieder	-10.6213
▁Heinrich	-10.6213
▁Kerker	-10.6213
▁Moines	-10.6213
▁President	-10.6213
▁Redistributi	-10.6213
▁Royalty	-10.6213
▁START	-10.6213
▁Secretary	-10.6213
▁Valhalla	-10.6213
▁Walpurgisnacht	-10.6213
▁Wissenschaft	-10.6213
▁altogether	-10.6213
▁bargain	-10.6213
▁birth	-10.6213
▁box	-10.6213
▁carnival	-10.6213
▁circu	-10.6213
▁curiosity	-10.6213
▁current	-10.6213
▁decision	-10.6213
▁divorce	-10.6213
▁elaborate	-10.6213
▁evidence	-10.6213
▁example	-10.6213
▁exempt	-10.6213
▁fishpole	-10.6213
▁freundlich	-10.6213
▁gebracht	-10.6213
▁geschwind	-10.6213
▁giggle	-10.6213
▁indignant	-10.6213
▁insupportable	-10.6213
▁involve	-10.6213
▁journalis	-10.6213
▁journey	-10.6213
▁laundry	-10.6213
▁lemonade	-10.6213
▁masterpiece	-10.6213
▁müßt	-10.6213
▁naïve	-10.6213
▁necessity	-10.6213
▁nobility	-10.6213
▁obbligato	-10.6213
▁ornament	-10.6213
▁paradise	-10.6213
▁poverty	-10.6213
▁pretense	-10.6213
▁promoting	-10.6213
▁provision	-10.6213
▁pursue	-10.6213
▁rival	-10.6213
▁routine	-10.6213
▁satisfied	-10.6213
▁scaffold	-10.6213
▁scurry	-10.6213
▁shrugged	-10.6213
▁smear	-10.6213
▁soapbox	-10.6213
▁spectacle	-10.6213
▁stomach	-10.6213
▁surrender	-10.6213
▁survey	-10.6213
▁swallow	-10.6213
▁traffic	-10.6213
▁vacant	-10.6213
▁valuable	-10.6213
▁wahrlich	-10.6213
▁Again	-10.6213
▁Gewiß	-10.6213
▁Könn	-10.6213
▁Prince	-10.6213
▁Riegel	-10.6213
▁Schlag	-10.6213
▁admire	-10.6213
▁concentrat	-10.6213
▁elfin	-10.6213
▁hunch	-10.6213
▁illuminat	-10.6213
▁knife	-10.6213
▁künft	-10.6213
▁maintain	-10.6213
▁plagen	-10.6213
▁section	-10.6213
▁tailor	-10.6213
▁transcri	-10.6213
hundert	-10.6213
▁Gestalt	-10.6213
▁Strange	-10.6213
▁brennt	-10.6213
▁pistol	-10.6213
▁threw	-10.6213
▁Element	-10.6213
▁Gruß	-10.6213
▁footlights	-10.6213
▁pleasant	-10.6213
▁repay	-10.6213
▁strik	-10.6213
haired	-10.6213
▁reckon	-10.6213
▁verloren	-10.6213
▁Lampe	-10.6213
▁apartment	-10.6213
▁gewöhn	-10.6213
▁sneer	-10.6213
▁screw	-10.6213
▁twist	-10.6213
▁Genuß	-10.6213
▁dolorous	-10.6213
▁grasp	-10.6213
▁trade	-10.6213
▁Elend	-10.6213
▁detach	-10.6213
▁shouts	-10.6213
▁Chor	-10.6213
▁Kalb	-10.6213
▁gift	-10.6213
▁reveal	-10.6213
▁Staub	-10.6213
▁attract	-10.6213
▁ziehe	-10.6213
▁message	-10.6213
▁patent	-10.6213
▁complete	-10.6213
▁gaud	-10.6213
▁trial	-10.6213
Defect	-10.6214
▁heroine	-10.6214
▁Reise	-10.6214
▁Pray	-10.6214
▁dragon	-10.6214
▁Spur	-10.6214
▁bristl	-10.6214
▁mood	-10.6214
▁humor	-10.6214
▁vife	-10.6214
abbed	-10.6214
▁Reihe	-10.6214
▁jerk	-10.6214
▁braucht	-10.6214
▁stationery	-10.6214
▁forbid	-10.6214
▁Gift	-10.6214
suade	-10.6214
▁deserve	-10.6214
▁Stimme	-10.6214
▁Home	-10.6214
▁Flügel	-10.6214
▁WARRANTY	-10.6214
▁bewegt	-10.6214
werk	-10.6214
▁animal	-10.6214
▁Geschwi	-10.6214
▁tilt	-10.6214
▁stirred	-10.6214
▁tanzt	-10.6214
▁mention	-10.6214
▁equal	-10.6214
▁11	-10.6214
▁Spaß	-10.6214
▁lustig	-10.6214
▁modifi	-10.6214
▁Abend	-10.6214
▁liability	-10.6215
▁slipped	-10.6215
▁ragged	-10.6215
▁center	-10.6215
▁humble	-10.6215
▁flute	-10.6215
▁grief	-10.6215
▁spielen	-10.6215
▁trie	-10.6215
POS	-10.6215
▁super	-10.6215
NIT	-10.6215
▁excuse	-10.6215
▁fifty	-10.6215
rücken	-10.6215
▁compelled	-10.6215
▁fehlt	-10.6215
▁Whither	-10.6215
▁flesh	-10.6215
ABILITY	-10.6216
▁House	-10.6216
▁melancholy	-10.6216
▁gently	-10.6216
wohnt	-10.6216
▁selber	-10.6216
▁stolz	-10.6216
▁Neu	-10.6216
▁limp	-10.6216
physi	-10.6216
▁cook	-10.6216
▁Think	-10.6216
▁everywhere	-10.6216
▁tight	-10.6216
▁Wollt	-10.6216
▁guide	-10.6216
▁fright	-10.6216
▁Bald	-10.6216
▁typewriter	-10.6216
▁Drang	-10.6217
▁fastened	-10.6217
▁resid	-10.6217
▁INC	-10.6217
▁Venus	-10.6217
▁desert	-10.6217
▁begun	-10.6217
▁vital	-10.6217
OK	-10.6217
▁corpse	-10.6217
▁sailor	-10.6217
▁drug	-10.6218
▁interpret	-10.6218
▁bott	-10.6218
▁describe	-10.6218
▁Dichter	-10.6218
nfang	-10.6218
▁compel	-10.6218
▁nobleman	-10.6218
▁observation	-10.6218
▁Trüb	-10.6218
▁Things	-10.6218
▁native	-10.6218
Lone	-10.6219
trug	-10.6219
▁genau	-10.6219
▁Dead	-10.6219
▁touched	-10.6219
▁exist	-10.6219
hood	-10.622
▁missus	-10.622
▁nein	-10.622
▁selig	-10.622
ictions	-10.6221
▁dim	-10.6221
▁frank	-10.6221
▁pander	-10.6221
▁humanity	-10.6222
▁Taten	-10.6222
▁special	-10.6222
▁Quell	-10.6222
▁Zwei	-10.6222
ripp	-10.6223
▁Wind	-10.6223
▁Seite	-10.6223
▁Alas	-10.6224
▁zw	-10.6224
itating	-10.6224
▁herrlich	-10.6225
▁Stein	-10.6225
▁anxiously	-10.6225
▁slap	-10.6225
▁assure	-10.6226
wort	-10.6226
▁Höhle	-10.6226
▁electronically	-10.6226
▁Sure	-10.6227
▁opportunity	-10.6227
▁THO	-10.6227
▁file	-10.6227
▁motion	-10.6229
▁Raum	-10.6229
▁continues	-10.6229
▁sever	-10.6229
▁merk	-10.623
▁gargoyle	-10.623
▁Weiß	-10.6231
▁Unless	-10.6231
▁Brei	-10.6231
▁slavey	-10.6231
▁Tränen	-10.6231
▁auto	-10.6232
▁Pein	-10.6232
▁hypnotized	-10.6232
▁value	-10.6232
▁liar	-10.6232
▁stern	-10.6233
▁einzig	-10.6233
▁clasp	-10.6233
▁bitterly	-10.6235
▁Nachbarin	-10.6236
Listen	-10.6236
imate	-10.6237
▁proceeded	-10.6237
▁beiden	-10.6238
▁gas	-10.6238
▁Tisch	-10.6238
ulous	-10.6238
▁agent	-10.6238
▁Schauer	-10.6239
▁eagerly	-10.6239
▁shine	-10.624
▁PG	-10.624
▁firmly	-10.624
▁perfection	-10.6242
▁Drei	-10.6242
heimlich	-10.6244
▁Much	-10.6246
▁shuffles	-10.6247
ifies	-10.6248
▁kindness	-10.6248
▁discussion	-10.6248
▁Enter	-10.6249
▁heiße	-10.6249
▁invited	-10.6249
▁widest	-10.6251
▁wirke	-10.6252
▁whatever	-10.6252
▁abso	-10.6254
rief	-10.6255
itted	-10.6256
▁fliegen	-10.6256
▁recover	-10.6257
▁indem	-10.6258
▁circle	-10.6258
▁nehmen	-10.6259
▁Mark	-10.6261
▁softly	-10.6263
▁withdraw	-10.6263
▁possessed	-10.6265
▁schweben	-10.6267
▁clearly	-10.6268
▁nervously	-10.6268
ünden	-10.6268
▁fumbl	-10.627
▁Didst	-10.6273
▁habit	-10.6274
▁nimmt	-10.6274
▁Wesen	-10.6274
▁kid	-10.6275
boy	-10.6275
▁mar	-10.6275
Schöne	-10.6276
▁Schmerzen	-10.6276
▁bleiben	-10.6276
▁surely	-10.6277
▁sincere	-10.6282
▁ließ	-10.6282
▁expected	-10.6284
▁stehen	-10.6289
Hm	-10.629
▁swinging	-10.6291
▁roads	-10.6291
litz	-10.6292
▁cracked	-10.6293
▁Halst	-10.6293
▁trübe	-10.6294
▁letzten	-10.6302
...."	-10.6304
hre	-10.6305
erms	-10.6307
▁herauf	-10.6312
going	-10.6314
▁kennt	-10.6314
▁tattooing	-10.6315
CE	-10.6317
ausen	-10.632
▁anyway	-10.6321
▁Bah	-10.6325
upft	-10.6326
▁offered	-10.6328
▁Dirne	-10.6331
▁soup	-10.6331
▁closer	-10.6332
▁deeply	-10.6339
▁painted	-10.6341
▁vat	-10.6344
▁closed	-10.6351
41	-10.6354
▁Geistes	-10.6355
▁drawer	-10.6358
▁liegen	-10.6359
▁hohen	-10.6362
▁Geistern	-10.6363
▁losing	-10.6366
▁findet	-10.6371
▁drawn	-10.6374
▁hatte	-10.638
▁Seelen	-10.6386
▁learned	-10.6387
eaten	-10.6391
▁folks	-10.6393
▁types	-10.6393
▁restr	-10.6399
▁läng	-10.6401
▁jest	-10.6405
▁VII	-10.6406
ntlich	-10.6413
veil	-10.6415
▁speaker	-10.6416
▁ahead	-10.6418
▁fühlen	-10.6422
▁despairing	-10.6424
▁curiously	-10.643
leise	-10.6431
▁linen	-10.6434
▁sehen	-10.6436
▁needed	-10.6445
▁spreads	-10.6445
▁photographs	-10.6445
▁umps	-10.6445
▁invites	-10.6446
▁sand	-10.6486
▁damages	-10.6497
▁computers	-10.6497
▁nuts	-10.6497
▁schöner	-10.6499
▁Ven	-10.6509
▁bestow	-10.6509
▁pile	-10.6512
▁eating	-10.6514
▁schönste	-10.6514
▁Hause	-10.6531
▁Dost	-10.6531
rises	-10.6536
▁noon	-10.6541
▁sleeping	-10.6547
▁citizens	-10.6549
▁masks	-10.6549
▁Ned	-10.6562
▁Must	-10.6576
ka	-10.6585
US	-10.6587
▁springt	-10.6588
▁tränk	-10.6591
▁belongs	-10.6602
▁sighs	-10.6608
▁sage	-10.6613
▁turning	-10.6628
▁listening	-10.6635
▁Kl	-10.6638
putzt	-10.665
▁Ring	-10.6651
▁kn	-10.6667
▁glu	-10.6668
▁thanks	-10.6704
▁trembles	-10.6709
▁Denk	-10.6723
▁allow	-10.6724
name	-10.6744
▁spüre	-10.6746
erei	-10.6752
mann	-10.6758
BER	-10.6765
▁calculat	-10.6777
▁finden	-10.6794
mov	-10.6799
▁Woh	-10.6804
▁forest	-10.681
zel	-10.6846
▁Lot	-10.685
inted	-10.6854
▁dra	-10.6879
▁tan	-10.6887
wie	-10.6909
legen	-10.6916
▁proof	-10.6924
▁bekannt	-10.6929
▁Sand	-10.6936
▁sta	-10.6937
▁bitte	-10.694
▁disturb	-10.6962
▁kl	-10.6972
▁Narr	-10.6979
▁slip	-10.6995
ödi	-10.7016
▁Heut	-10.7025
7	-10.7061
ison	-10.7064
cake	-10.7082
▁rende	-10.7094
▁Müh	-10.7138
ois	-10.716
▁struggle	-10.7161
▁Höhe	-10.7193
schrei	-10.7202
▁rushe	-10.7219
▁bounce	-10.7235
male	-10.7247
▁rep	-10.731
▁tall	-10.7346
tended	-10.7367
▁Bod	-10.7385
▁Mal	-10.744
omin	-10.7456
▁Qui	-10.7514
▁hör	-10.7556
hasten	-10.7557
▁calculate	-10.7565
fil	-10.7602
weile	-10.7604
band	-10.761
fri	-10.7616
teil	-10.7634
3	-10.7654
IL	-10.7662
▁Di	-10.7675
reck	-10.7677
laughs	-10.7733
▁fu	-10.7751
▁CON	-10.7768
Geh	-10.7787
▁Ehre	-10.7801
▁Ko	-10.7806
vie	-10.7838
cap	-10.7844
terrified	-10.7851
lad	-10.7871
auern	-10.7873
▁trip	-10.7876
▁inquir	-10.7885
itzt	-10.7892
▁invite	-10.7894
hlen	-10.7905
laut	-10.7926
▁photograph	-10.7938
ashing	-10.794
▁expense	-10.7941
▁copper	-10.7947
▁umbrella	-10.7952
▁Jew	-10.7961
▁spread	-10.7982
pressed	-10.7995
▁dri	-10.7997
▁shak	-10.7998
▁weigh	-10.8007
gett	-10.8011
▁Mund	-10.8018
ANT	-10.8018
▁fasse	-10.8029
▁blick	-10.8049
▁ump	-10.8064
▁nenn	-10.8079
▁enter	-10.8083
▁lean	-10.8102
▁sprich	-10.8118
▁Hals	-10.8134
▁tha	-10.814
fashion	-10.8142
TH	-10.8144
ruhig	-10.8144
▁curb	-10.8145
continu	-10.8145
▁Leute	-10.8147
laughing	-10.8148
starts	-10.8148
stellt	-10.8148
hält	-10.8149
human	-10.8149
Come	-10.8149
Tell	-10.8149
Nothing	-10.815
▁America	-10.815
“	-10.815
woman	-10.8151
LOUISA	-10.8151
▁charm	-10.8151
walk	-10.8151
▁vanish	-10.8152
Who	-10.8154
town	-10.8155
fassen	-10.8156
▁view	-10.816
know	-10.816
▁surround	-10.8161
▁confirm	-10.8161
▁cheat	-10.8161
▁bum	-10.8163
Zu	-10.8163
▁betray	-10.8163
▁lift	-10.8166
ließ	-10.8167
▁leb	-10.8173
▁arrive	-10.8173
▁remin	-10.8174
most	-10.8175
Did	-10.8178
▁exten	-10.818
▁varie	-10.8181
cold	-10.8181
▁übe	-10.8183
ehmt	-10.8184
▁flow	-10.8185
▁consider	-10.8185
▁pensive	-10.8186
▁gay	-10.8187
▁swor	-10.8189
▁slave	-10.8192
▁entire	-10.8192
treten	-10.8192
ONS	-10.8193
▁labor	-10.8194
▁object	-10.8198
▁herrliche	-10.8202
▁sittin	-10.8204
▁vatch	-10.8205
were	-10.8207
uddenly	-10.8207
zieren	-10.8207
elbst	-10.8208
hülle	-10.8209
▁govern	-10.8211
ämme	-10.8211
cogniz	-10.8212
▁patter	-10.8212
▁Schau	-10.8212
▁modern	-10.8212
ehlt	-10.8212
▁unwrap	-10.8213
standen	-10.8213
idious	-10.8213
▁elect	-10.8213
▁contempt	-10.8213
▁responsib	-10.8213
▁scrub	-10.8213
Ü	-10.8213
▁Gläs	-10.8213
▁Yankel	-10.8213
▁majest	-10.8213
▁maxim	-10.8213
MEISTER	-10.8213
]	-10.8213
ahrhaftig	-10.8213
möglich	-10.8213
ärmlich	-10.8213
▁Admirabl	-10.8213
▁Author	-10.8213
▁Britain	-10.8213
▁BÜRGER	-10.8213
▁Clark	-10.8213
▁Europe	-10.8213
▁Freiheit	-10.8213
▁Fräulein	-10.8213
▁Geschmeid	-10.8213
▁Hätt	-10.8213
▁KATER	-10.8213
▁Körper	-10.8213
▁Major	-10.8213
▁McGuire	-10.8213
▁Nevertheless	-10.8213
▁Ordnung	-10.8213
▁Pfropf	-10.8213
▁Schlüssel	-10.8213
▁Studie	-10.8213
▁TIERE	-10.8213
▁Vernunft	-10.8213
▁Zeitvertreib	-10.8213
▁ahnungsvoll	-10.8213
▁announce	-10.8213
▁appeal	-10.8213
▁barytone	-10.8213
▁basket	-10.8213
▁burlesque	-10.8213
▁cemetery	-10.8213
▁clown	-10.8213
▁conversation	-10.8213
▁cunning	-10.8213
▁customer	-10.8213
▁defeat	-10.8213
▁difference	-10.8213
▁distress	-10.8213
▁evangelist	-10.8213
▁exactly	-10.8213
▁exchange	-10.8213
▁famili	-10.8213
▁fiction	-10.8213
▁fruit	-10.8213
▁furniture	-10.8213
▁fällt	-10.8213
▁gewinnen	-10.8213
▁gypsy	-10.8213
▁incomplete	-10.8213
▁incredible	-10.8213
▁indifference	-10.8213
▁indifferent	-10.8213
▁infernal	-10.8213
▁instrument	-10.8213
▁interview	-10.8213
▁lavender	-10.8213
▁literary	-10.8213
▁läuft	-10.8213
▁mackinaw	-10.8213
▁manuscript	-10.8213
▁microscope	-10.8213
▁mix	-10.8213
▁mountebank	-10.8213
▁museum	-10.8213
▁nimmermehr	-10.8213
▁obedient	-10.8213
▁peasant	-10.8213
▁peculiar	-10.8213
▁phonograph	-10.8213
▁presume	-10.8213
▁prevent	-10.8213
▁proclaim	-10.8213
▁publish	-10.8213
▁punishment	-10.8213
▁quaint	-10.8213
▁reconcile	-10.8213
▁refined	-10.8213
▁renounce	-10.8213
▁reproach	-10.8213
▁safety	-10.8213
▁saxophone	-10.8213
▁scorpion	-10.8213
▁secure	-10.8213
▁separate	-10.8213
▁steadfastly	-10.8213
▁synagogue	-10.8213
▁system	-10.8213
▁transport	-10.8213
▁treibt	-10.8213
▁trinkt	-10.8213
▁violence	-10.8213
▁wüßt	-10.8213
▁yield	-10.8213
▁ziehn	-10.8213
▁Clara	-10.8213
▁Möcht	-10.8213
▁Pardon	-10.8213
▁Please	-10.8213
▁Yesterday	-10.8213
▁artifice	-10.8213
▁bridegroom	-10.8213
▁circumstance	-10.8213
▁convuls	-10.8213
▁creep	-10.8213
▁degree	-10.8213
▁droben	-10.8213
▁entgegen	-10.8213
▁erfreu	-10.8213
▁garrulous	-10.8213
▁glory	-10.8213
▁hoarse	-10.8213
▁höchsten	-10.8213
▁incongru	-10.8213
▁landlady	-10.8213
▁launch	-10.8213
▁monkey	-10.8213
▁occur	-10.8213
▁puzzle	-10.8213
▁resumed	-10.8213
▁rouge	-10.8213
▁scholar	-10.8213
▁schätzen	-10.8213
▁smart	-10.8213
▁sovereign	-10.8213
▁strebt	-10.8213
▁suggest	-10.8213
▁truly	-10.8213
▁tyrant	-10.8213
defense	-10.8213
▁Club	-10.8213
▁Jetzt	-10.8213
▁York	-10.8213
▁array	-10.8213
▁bedlam	-10.8213
▁bleeding	-10.8213
▁canvas	-10.8213
▁condition	-10.8213
▁hammering	-10.8213
▁hinüber	-10.8213
▁kitchen	-10.8213
▁powder	-10.8213
▁romance	-10.8213
▁thumb	-10.8213
▁Keep	-10.8213
▁Keller	-10.8213
▁bequemen	-10.8213
▁bulb	-10.8213
▁executioner	-10.8213
▁geboren	-10.8213
▁leisure	-10.8213
▁mistress	-10.8213
▁release	-10.8213
▁squeal	-10.8213
▁stream	-10.8213
▁verzeih	-10.8213
▁worried	-10.8213
enforce	-10.8213
trifft	-10.8213
▁Floh	-10.8213
▁echo	-10.8213
▁sharp	-10.8213
▁wrath	-10.8213
▁Observe	-10.8213
▁Stelle	-10.8213
▁cinder	-10.8213
▁distinction	-10.8213
▁fiery	-10.8213
▁milk	-10.8213
▁monster	-10.8213
▁schwör	-10.8213
▁scrubbed	-10.8213
▁swift	-10.8213
▁trail	-10.8213
▁tramp	-10.8213
▁wrapp	-10.8213
Funny	-10.8213
▁Finally	-10.8213
▁Soldat	-10.8213
▁changing	-10.8213
▁innocent	-10.8213
▁measure	-10.8213
▁visible	-10.8213
▁Krone	-10.8213
▁Streben	-10.8213
▁prefer	-10.8213
▁Boris	-10.8213
▁Gunst	-10.8213
▁giant	-10.8213
▁glücklich	-10.8213
▁himmlisch	-10.8213
▁sniff	-10.8213
▁grace	-10.8213
▁inanimate	-10.8213
▁shift	-10.8213
▁wicked	-10.8213
▁pounds	-10.8213
▁befrei	-10.8213
▁bloomin	-10.8213
▁distance	-10.8213
▁embar	-10.8213
▁fourteen	-10.8213
▁First	-10.8213
▁absence	-10.8213
▁latter	-10.8213
▁tapping	-10.8213
▁wailing	-10.8213
▁Führ	-10.8213
▁feast	-10.8213
▁ziem	-10.8213
grund	-10.8214
▁$5,000	-10.8214
▁Watch	-10.8214
▁countries	-10.8214
öchst	-10.8214
▁awning	-10.8214
▁exhausted	-10.8214
▁France	-10.8214
▁engines	-10.8214
▁sagging	-10.8214
▁settled	-10.8214
▁sterben	-10.8214
▁dahin	-10.8214
▁pinch	-10.8214
▁Schelm	-10.8214
▁chalk	-10.8214
▁rash	-10.8214
▁darum	-10.8214
▁sprechen	-10.8214
▁Pflicht	-10.8214
▁inclin	-10.8214
▁Ferne	-10.8214
▁Schrein	-10.8214
▁contra	-10.8214
▁Poison	-10.8214
▁storm	-10.8214
▁rows	-10.8214
▁blazing	-10.8214
▁ecstasies	-10.8214
▁owl	-10.8214
▁weird	-10.8214
sistance	-10.8214
▁descend	-10.8214
▁double	-10.8214
▁error	-10.8214
▁lowered	-10.8214
▁manager	-10.8214
▁whirl	-10.8214
▁existence	-10.8214
▁wives	-10.8214
▁Mittel	-10.8214
▁nodding	-10.8214
▁stürzt	-10.8214
▁kühne	-10.8214
▁ANDRE	-10.8214
▁venture	-10.8214
▁behagen	-10.8214
▁earned	-10.8214
Rush	-10.8214
▁Büch	-10.8214
▁ballroom	-10.8214
▁continually	-10.8214
▁staff	-10.8214
▁Iowa	-10.8215
ball	-10.8215
▁diversion	-10.8215
gelegt	-10.8215
▁soap	-10.8215
füllt	-10.8215
▁prejudices	-10.8215
▁Vielleicht	-10.8215
▁Trunk	-10.8215
Throw	-10.8215
▁Christian	-10.8215
▁denken	-10.8215
▁Treu	-10.8215
▁poles	-10.8215
▁brenne	-10.8215
▁driving	-10.8215
▁saunter	-10.8215
gesehen	-10.8215
▁Schlange	-10.8215
griff	-10.8215
▁recognize	-10.8215
▁blurred	-10.8215
erior	-10.8215
▁agony	-10.8215
▁coward	-10.8215
▁zarte	-10.8216
▁kalt	-10.8216
▁highway	-10.8216
▁Menschheit	-10.8216
▁disease	-10.8216
▁Stroh	-10.8216
▁hurl	-10.8216
streben	-10.8216
▁authority	-10.8216
▁wench	-10.8216
▁Frage	-10.8216
▁ships	-10.8216
▁recall	-10.8216
▁destin	-10.8216
▁assume	-10.8216
▁brick	-10.8217
▁shade	-10.8217
▁Theater	-10.8217
▁wahre	-10.8217
▁tönt	-10.8217
▁Stevers	-10.8217
▁brauche	-10.8217
SER	-10.8218
▁Burg	-10.8218
▁depart	-10.8218
▁atoms	-10.8218
▁idle	-10.8218
▁hyp	-10.8218
▁performance	-10.8218
▁genung	-10.8218
▁shave	-10.8219
▁Saft	-10.8219
kehre	-10.8219
▁arc	-10.8219
▁basement	-10.8219
▁scribbl	-10.8219
▁Schiff	-10.822
▁ego	-10.822
▁Spazier	-10.8221
▁sinner	-10.8221
▁afterward	-10.8221
▁chill	-10.8221
▁Verlang	-10.8221
rbed	-10.8221
▁rough	-10.8221
▁lounge	-10.8221
▁uncomfortable	-10.8222
▁attempt	-10.8222
▁ribbon	-10.8222
▁Pretty	-10.8222
ESS	-10.8223
▁diff	-10.8223
▁sixty	-10.8223
▁Macht	-10.8223
▁decre	-10.8223
▁forgiveness	-10.8223
▁appearance	-10.8224
▁Barr	-10.8224
▁racket	-10.8224
▁travelers	-10.8224
▁However	-10.8224
vous	-10.8224
▁Hold	-10.8225
▁luck	-10.8225
▁echte	-10.8226
▁washing	-10.8226
rium	-10.8226
▁linger	-10.8226
▁Wohl	-10.8226
▁breathless	-10.8227
▁sail	-10.8228
▁despised	-10.8228
▁recently	-10.8228
▁fishermen	-10.8229
▁Viel	-10.823
orting	-10.823
ifty	-10.8231
▁oppressed	-10.8231
▁Geld	-10.8232
▁Jack	-10.8233
gross	-10.8233
▁amour	-10.8234
malicious	-10.8236
ONE	-10.8236
▁lachen	-10.8236
▁Margarete	-10.8237
▁Marcey	-10.8237
▁brush	-10.8237
▁sprach	-10.8237
ius	-10.8237
▁warrant	-10.8237
urdy	-10.8237
▁melt	-10.8238
▁fatal	-10.8238
▁Back	-10.8238
▁Silence	-10.8239
▁admit	-10.8239
▁erkennen	-10.8239
▁Jungen	-10.8239
nay	-10.824
▁brand	-10.824
▁Dienst	-10.8241
▁Halt	-10.8241
▁drank	-10.8241
▁Davi	-10.8241
▁hoch	-10.8242
▁gained	-10.8243
▁succeeded	-10.8243
▁LO	-10.8243
▁PU	-10.8243
sunder	-10.8243
kill	-10.8243
▁therefore	-10.8243
▁Dank	-10.8243
▁gradua	-10.8245
▁Baum	-10.8245
▁childish	-10.8246
▁caress	-10.8246
▁Other	-10.8246
zwingen	-10.8247
olz	-10.8249
▁ew	-10.825
▁interestin	-10.825
▁Fliegen	-10.825
▁roaring	-10.8251
▁practice	-10.8251
▁Zieh	-10.8251
▁shuddering	-10.8251
▁deli	-10.8252
▁profit	-10.8252
▁platitude	-10.8252
▁Bert	-10.8253
einander	-10.8254
▁bewildered	-10.8254
schien	-10.8256
▁survive	-10.8257
▁fop	-10.826
▁addresses	-10.8262
▁spur	-10.8264
izar	-10.8264
▁candy	-10.8265
▁Bösen	-10.8265
▁confirmed	-10.8266
▁lifted	-10.8266
▁surrounded	-10.8266
▁cheated	-10.8266
▁Verzeiht	-10.8267
▁NE	-10.8269
▁expir	-10.8269
▁bitter	-10.8272
▁schafft	-10.8272
espite	-10.8273
AY	-10.8273
▁wri	-10.8275
▁ernste	-10.8276
▁piercing	-10.8277
▁unbe	-10.8277
▁arguing	-10.8277
▁leider	-10.8281
▁ruhig	-10.8283
▁stellt	-10.8283
▁feller	-10.8287
▁greatness	-10.8287
▁Side	-10.829
▁kennen	-10.8291
▁aufzu	-10.83
▁Toten	-10.8301
▁Lieder	-10.8301
▁Pfade	-10.8307
▁pleading	-10.831
▁advertisements	-10.831
▁nennt	-10.831
AS	-10.8312
▁spricht	-10.8313
▁ease	-10.8313
▁PL	-10.8314
▁rav	-10.8317
iel	-10.8319
assen	-10.8321
▁passes	-10.8322
▁weder	-10.8322
ssenger	-10.8323
▁süßen	-10.8324
▁folding	-10.8325
▁Weiber	-10.8329
▁mächtig	-10.8334
▁Into	-10.8334
▁missed	-10.8335
tory	-10.8336
▁alarmed	-10.8336
▁Big	-10.8338
▁Fühl	-10.834
▁mancher	-10.8341
▁tiefer	-10.835
aries	-10.8351
▁unten	-10.8353
glasses	-10.8359
Take	-10.8361
▁gebt	-10.8362
▁Blue	-10.8364
▁Armen	-10.8365
▁post	-10.8366
▁barr	-10.8368
▁komme	-10.8369
▁fixed	-10.8371
▁performed	-10.8371
▁regen	-10.8373
▁hebt	-10.8374
▁action	-10.8374
oration	-10.8375
▁silently	-10.8375
rack	-10.838
▁Mont	-10.8381
▁frische	-10.8383
cut	-10.8385
▁grim	-10.839
▁bank	-10.839
▁magst	-10.8391
rcely	-10.8393
▁offering	-10.8394
▁bother	-10.84
▁ordered	-10.8406
▁picked	-10.8407
▁aside	-10.841
▁vent	-10.8417
bearer	-10.8418
▁herab	-10.8419
▁carrying	-10.843
▁allzu	-10.8434
▁higher	-10.8443
▁pressed	-10.8445
▁Too	-10.8449
▁bump	-10.845
geist	-10.8451
▁burned	-10.8454
▁sehe	-10.8457
▁vir	-10.8469
▁wise	-10.8486
ewölb	-10.8494
▁Soon	-10.8498
▁Dieb	-10.8508
▁singen	-10.8511
▁goal	-10.8512
▁2	-10.8517
ebeln	-10.852
▁Beine	-10.8531
onder	-10.8532
version	-10.8537
▁fling	-10.8537
▁Gesch	-10.8542
▁argu	-10.8546
▁freez	-10.8556
▁sorrowful	-10.8559
▁Aha	-10.856
laden	-10.8582
▁fragt	-10.8589
NGE	-10.8593
▁hum	-10.8594
▁engage	-10.8595
ication	-10.8604
▁Pol	-10.8614
▁charitabl	-10.8615
▁höre	-10.8619
ews	-10.8626
▁pierc	-10.8635
▁disc	-10.8659
▁port	-10.8692
wag	-10.8694
▁Pap	-10.8734
▁Kirche	-10.8745
▁armen	-10.876
▁langen	-10.8775
▁beste	-10.8778
▁pane	-10.8837
lacht	-10.8851
▁sum	-10.8858
each	-10.8891
70	-10.8904
▁coarse	-10.8908
VE	-10.8935
▁grade	-10.8949
ook	-10.895
solution	-10.8951
▁singer	-10.9036
bri	-10.9059
▁Hatte	-10.9077
gon	-10.9104
▁Beste	-10.9118
▁leve	-10.9151
▁dissolve	-10.9199
▁Kett	-10.9209
NDER	-10.9218
▁weari	-10.9226
lieu	-10.9254
lack	-10.9273
▁polic	-10.9352
▁bös	-10.9406
ney	-10.95
oney	-10.952
hine	-10.9564
KE	-10.9568
face	-10.9597
▁perch	-10.9694
ITH	-10.9696
roofread	-10.9698
▁Besser	-10.9701
TEN	-10.9738
▁Hunde	-10.9757
hell	-10.9759
IGE	-10.9837
dauer	-10.9839
▁fitt	-10.9884
lowly	-10.9887
anzend	-10.9934
berg	-10.9998
▁ka	-11.0046
Hell	-11.0115
may	-11.0125
verhead	-11.013
Over	-11.0137
▁Mac	-11.015
▁Herrlich	-11.0158
ringen	-11.0167
drang	-11.0186
▁20	-11.0234
▁pier	-11.0242
place	-11.025
▁Erz	-11.0298
sprech	-11.03
▁End	-11.0337
▁leav	-11.0358
▁cla	-11.0379
▁type	-11.0438
▁folk	-11.0438
▁tree	-11.0444
▁Trag	-11.0452
▁edition	-11.0452
▁shadow	-11.0454
irren	-11.048
long	-11.0484
ählt	-11.0489
▁key	-11.0513
round	-11.0514
▁cab	-11.0517
äumen	-11.0524
tück	-11.0532
▁Missi	-11.0532
verted	-11.0552
lauen	-11.0567
nyway	-11.057
▁nimm	-11.0588
ächtiger	-11.0597
minded	-11.061
▁cop	-11.0625
ounded	-11.063
Lucia	-11.0642
rushe	-11.0645
recover	-11.0645
necessary	-11.0647
Quit	-11.0647
famous	-11.0648
key	-11.0648
Max	-11.0648
▁Böse	-11.0648
protected	-11.0649
▁konnt	-11.0649
Paula	-11.0649
Because	-11.0649
second	-11.0649
paper	-11.065
Joe	-11.065
▁Laub	-11.065
license	-11.065
People	-11.065
devil	-11.0651
Some	-11.0651
forward	-11.0651
which	-11.0651
▁rag	-11.0651
great	-11.0651
nothing	-11.0651
Look	-11.0651
good	-11.0651
pardon	-11.0651
fact	-11.0651
bald	-11.0652
▁build	-11.0652
dressed	-11.0653
▁broke	-11.0653
▁plea	-11.0654
does	-11.0654
close	-11.0655
board	-11.0656
▁surviv	-11.0657
load	-11.0661
▁bewilder	-11.0661
song	-11.0662
drop	-11.0664
▁repeat	-11.0664
water	-11.0666
NO	-11.0666
letter	-11.0666
▁oblige	-11.0669
▁decide	-11.0669
unken	-11.0671
▁determine	-11.0672
acious	-11.0674
▁Stern	-11.0675
▁Fels	-11.0676
▁maid	-11.0683
pressing	-11.0684
ächte	-11.0686
UND	-11.0688
▁arch	-11.0688
▁natural	-11.069
▁locat	-11.069
▁guilt	-11.0692
▁necessar	-11.0692
ountains	-11.0693
▁bleibe	-11.0698
▁Vat	-11.0699
linked	-11.0701
store	-11.0702
▁relie	-11.0702
elchen	-11.0706
errible	-11.0709
▁author	-11.0709
riving	-11.071
scribe	-11.071
lothes	-11.0711
law	-11.0711
▁happi	-11.0712
prejudice	-11.0712
osene	-11.0712
ielleicht	-11.0712
▁speech	-11.0713
▁empf	-11.0713
▁lunch	-11.0713
▁Six	-11.0713
▁acquaint	-11.0713
▁Mägd	-11.0713
▁commerc	-11.0713
▁disprov	-11.0713
ARK	-11.0713
FTER	-11.0713
RAPH	-11.0713
atürlich	-11.0713
dünkt	-11.0713
ianissimo	-11.0713
kräftig	-11.0713
schlief	-11.0713
significance	-11.0713
significant	-11.0713
sychopathic	-11.0713
äuschen	-11.0713
▁Amelia	-11.0713
▁Betracht	-11.0713
▁Blocksberg	-11.0713
▁Building	-11.0713
▁Cinderella	-11.0713
▁Consider	-11.0713
▁December	-11.0713
▁EVEN	-11.0713
▁Erkenn	-11.0713
▁Erlaub	-11.0713
▁Gefahr	-11.0713
▁Geheimnis	-11.0713
▁Geschlecht	-11.0713
▁Gespenst	-11.0713
▁Gäste	-11.0713
▁IRRLICHT	-11.0713
▁Institute	-11.0713
▁Instrument	-11.0713
▁Irrtum	-11.0713
▁KALB	-11.0713
▁Künste	-11.0713
▁Mexican	-11.0713
▁Nähe	-11.0713
▁Orient	-11.0713
▁PERSON	-11.0713
▁Pergamen	-11.0713
▁Phantasie	-11.0713
▁Qual	-11.0713
▁Stavanger	-11.0713
▁TRAGEDY	-11.0713
▁Tropfen	-11.0713
▁Unhappy	-11.0713
▁Verderben	-11.0713
▁aboud	-11.0713
▁abroad	-11.0713
▁advice	-11.0713
▁ancestry	-11.0713
▁annihilate	-11.0713
▁anxiety	-11.0713
▁apprehensi	-11.0713
▁aristocrat	-11.0713
▁arrival	-11.0713
▁assemble	-11.0713
▁automaton	-11.0713
▁avay	-11.0713
▁bacchanal	-11.0713
▁bassoon	-11.0713
▁begegnen	-11.0713
▁begehrt	-11.0713
▁bekennen	-11.0713
▁besondre	-11.0713
▁bewußt	-11.0713
▁bladder	-11.0713
▁boulevard	-11.0713
▁bronze	-11.0713
▁büßen	-11.0713
▁cablegram	-11.0713
▁chains	-11.0713
▁coffee	-11.0713
▁coiffure	-11.0713
▁condemn	-11.0713
▁debonair	-11.0713
▁deception	-11.0713
▁deplorable	-11.0713
▁disagree	-11.0713
▁dismiss	-11.0713
▁dragging	-11.0713
▁dunkeln	-11.0713
▁education	-11.0713
▁emerge	-11.0713
▁exchanging	-11.0713
▁fourflush	-11.0713
▁function	-11.0713
▁geheimnisvoll	-11.0713
▁gelehrt	-11.0713
▁glimpse	-11.0713
▁glitter	-11.0713
▁glove	-11.0713
▁handkerchief	-11.0713
▁handwriting	-11.0713
▁honeymoon	-11.0713
▁hurries	-11.0713
▁importance	-11.0713
▁influence	-11.0713
▁intelligence	-11.0713
▁interfere	-11.0713
▁irresistibl	-11.0713
▁klopft	-11.0713
▁library	-11.0713
▁licentious	-11.0713
▁literature	-11.0713
▁lithograph	-11.0713
▁loneliness	-11.0713
▁magazine	-11.0713
▁mandarin	-11.0713
▁morgue	-11.0713
▁muttered	-11.0713
▁mutters	-11.0713
▁nötig	-11.0713
▁obliterat	-11.0713
▁obstacle	-11.0713
▁organized	-11.0713
▁overpower	-11.0713
▁participat	-11.0713
▁perceive	-11.0713
▁pillory	-11.0713
▁plebeian	-11.0713
▁production	-11.0713
▁proletaire	-11.0713
▁proportion	-11.0713
▁prudence	-11.0713
▁quot	-11.0713
▁railing	-11.0713
▁reject	-11.0713
▁remnant	-11.0713
▁reputation	-11.0713
▁rifles	-11.0713
▁sardonic	-11.0713
▁scheiden	-11.0713
▁screaming	-11.0713
▁shrewd	-11.0713
▁skeleton	-11.0713
▁sleeve	-11.0713
▁spürt	-11.0713
▁squeez	-11.0713
▁stolidly	-11.0713
▁superior	-11.0713
▁swept	-11.0713
▁sybarite	-11.0713
▁sympathy	-11.0713
▁trinken	-11.0713
▁tät	-11.0713
▁unravel	-11.0713
▁wreath	-11.0713
Verschwind	-11.0713
glänzt	-11.0713
▁Barnum	-11.0713
▁PAR	-11.0713
▁Sessel	-11.0713
▁Sphären	-11.0713
▁Tät	-11.0713
▁Väter	-11.0713
▁WILL	-11.0713
▁Würd	-11.0713
▁Zweifel	-11.0713
▁accompan	-11.0713
▁achieve	-11.0713
▁automatic	-11.0713
▁defian	-11.0713
▁easier	-11.0713
▁fathom	-11.0713
▁gambl	-11.0713
▁gesehn	-11.0713
▁gäb	-11.0713
▁horizon	-11.0713
▁inflict	-11.0713
▁previous	-11.0713
▁prudent	-11.0713
▁stenographer	-11.0713
▁thirst	-11.0713
▁twice	-11.0713
▁verbinde	-11.0713
▁virtuous	-11.0713
schleicht	-11.0713
▁Fiedel	-11.0713
▁Frühling	-11.0713
▁Speise	-11.0713
▁Through	-11.0713
▁Tönen	-11.0713
▁craft	-11.0713
▁detail	-11.0713
▁disappear	-11.0713
▁fedora	-11.0713
▁gathered	-11.0713
▁geschenkt	-11.0713
▁heartfelt	-11.0713
▁idol	-11.0713
▁imagination	-11.0713
▁overcoat	-11.0713
▁pencil	-11.0713
▁seltsam	-11.0713
▁stupor	-11.0713
▁tombstone	-11.0713
▁unwind	-11.0713
▁wiggl	-11.0713
▁übergeben	-11.0713
▁60	-11.0713
▁Glocken	-11.0713
▁alternate	-11.0713
▁illustr	-11.0713
▁studio	-11.0713
▁thunder	-11.0713
alogue	-11.0713
plagt	-11.0713
▁Mother	-11.0713
▁advise	-11.0713
▁dictat	-11.0713
▁instead	-11.0713
▁ocean	-11.0713
▁starving	-11.0713
▁stroke	-11.0713
▁utmost	-11.0713
▁versteht	-11.0713
ICHT	-11.0713
atience	-11.0713
▁antiqu	-11.0713
▁depth	-11.0713
▁deutsche	-11.0713
▁proposal	-11.0713
▁ruhn	-11.0713
▁spectre	-11.0713
ntbehren	-11.0713
ordinary	-11.0713
trauen	-11.0713
▁Grill	-11.0713
▁musk	-11.0713
▁struck	-11.0713
▁various	-11.0713
▁Count	-11.0713
▁Forgive	-11.0713
▁Stock	-11.0713
▁profan	-11.0713
▁wechsel	-11.0713
▁enemy	-11.0713
▁gnug	-11.0713
▁regulat	-11.0713
▁tribe	-11.0713
▁Lohn	-11.0713
▁slippers	-11.0713
OTHER	-11.0713
▁complaint	-11.0713
▁trace	-11.0713
▁Girl	-11.0713
▁restrain	-11.0713
KIND	-11.0713
▁Justice	-11.0713
▁Italian	-11.0713
▁resolved	-11.0713
▁Sofie	-11.0713
▁curve	-11.0713
▁scorn	-11.0713
▁stinkt	-11.0713
▁schickt	-11.0713
▁herüber	-11.0714
▁bathing	-11.0714
▁dispute	-11.0714
▁erscheint	-11.0714
▁grateful	-11.0714
▁vagabond	-11.0714
▁vicious	-11.0714
▁$2,000	-11.0714
▁church	-11.0714
▁Rube	-11.0714
▁chuckl	-11.0714
responsibility	-11.0714
▁Halb	-11.0714
▁Ratten	-11.0714
▁bathroom	-11.0714
▁guests	-11.0714
▁distant	-11.0714
▁Machine	-11.0714
▁facil	-11.0714
▁pitch	-11.0714
▁vertrau	-11.0714
▁Curse	-11.0714
▁Genug	-11.0714
▁tragedi	-11.0714
▁incense	-11.0714
▁treu	-11.0714
erciful	-11.0714
▁crude	-11.0714
▁caprice	-11.0714
frieden	-11.0714
▁midst	-11.0714
▁empfinde	-11.0714
▁patch	-11.0714
▁Tired	-11.0714
▁magnificent	-11.0714
▁Full	-11.0714
▁England	-11.0714
▁Bedenk	-11.0714
▁Near	-11.0714
▁extort	-11.0714
▁swagger	-11.0714
▁rattl	-11.0714
▁destruction	-11.0714
▁simpleton	-11.0714
▁Geschöpf	-11.0714
▁rooftops	-11.0714
▁Wurm	-11.0714
▁Wollen	-11.0714
▁decorat	-11.0714
▁Knie	-11.0714
nblick	-11.0714
▁Persia	-11.0714
▁Schauspiel	-11.0714
▁cement	-11.0714
▁contemplation	-11.0714
▁subscribe	-11.0714
▁promotion	-11.0714
▁lordship	-11.0714
▁wußt	-11.0714
▁noisy	-11.0714
▁hypocrite	-11.0714
▁laufen	-11.0714
▁perpetual	-11.0714
▁preposterous	-11.0714
▁propaganda	-11.0714
▁Down	-11.0714
gesang	-11.0714
▁Mugs	-11.0714
▁elevator	-11.0714
▁gedrängte	-11.0714
▁authorities	-11.0714
▁breakwater	-11.0714
▁duchy	-11.0714
▁shore	-11.0714
▁fehlen	-11.0714
▁codes	-11.0714
▁CHORUS	-11.0714
▁Mason	-11.0714
▁comfort	-11.0714
▁nodded	-11.0714
▁Darf	-11.0714
▁alms	-11.0714
▁klingt	-11.0714
▁Wilt	-11.0714
valid	-11.0715
▁discourse	-11.0715
▁gabby	-11.0715
▁Haupt	-11.0715
▁issue	-11.0715
▁Schale	-11.0715
DISC	-11.0715
▁estate	-11.0715
▁detective	-11.0715
▁posture	-11.0715
▁attack	-11.0715
▁offended	-11.0715
▁dagger	-11.0715
▁oblivious	-11.0715
▁Gast	-11.0715
▁tumult	-11.0715
lügen	-11.0715
▁blousy	-11.0715
legenheit	-11.0715
▁treatment	-11.0715
▁Wabash	-11.0715
▁gown	-11.0715
▁zeigt	-11.0715
▁stagger	-11.0715
▁Kranz	-11.0715
▁horn	-11.0715
OUND	-11.0715
▁dancing	-11.0715
KTO	-11.0716
▁Lebt	-11.0716
▁Dämm	-11.0716
clai	-11.0716
▁disturbance	-11.0716
▁violat	-11.0716
▁Zimmer	-11.0716
▁Ewig	-11.0716
▁angle	-11.0716
▁flame	-11.0716
▁reduce	-11.0716
▁engagement	-11.0716
▁Maske	-11.0717
▁PUR	-11.0717
▁constan	-11.0717
▁Witz	-11.0717
UST	-11.0717
frau	-11.0717
passionately	-11.0717
abbi	-11.0717
▁Harry	-11.0717
▁speechless	-11.0717
EPT	-11.0717
▁Dunst	-11.0717
▁Leich	-11.0717
▁hungry	-11.0717
rauben	-11.0717
▁Geschrei	-11.0717
▁meiden	-11.0718
▁dukedom	-11.0718
link	-11.0718
trieben	-11.0718
▁courtroom	-11.0718
▁furcht	-11.0718
▁behend	-11.0718
▁Waba	-11.0718
▁verhaßt	-11.0718
▁vender	-11.0718
▁volum	-11.0718
▁forsake	-11.0718
▁bought	-11.0718
▁immortality	-11.0719
vigor	-11.0719
▁detain	-11.0719
▁HEXEN	-11.0719
▁cruelty	-11.0719
▁ruft	-11.0719
▁wenigsten	-11.0719
▁Black	-11.0719
▁humorous	-11.0719
▁writh	-11.0719
▁Rette	-11.0719
▁Master	-11.0719
▁schreit	-11.0719
▁führt	-11.0719
▁torment	-11.072
▁theatre	-11.072
▁tenderness	-11.072
▁delay	-11.072
bohrt	-11.072
schuld	-11.072
have	-11.072
▁slant	-11.072
PRESS	-11.072
▁weakness	-11.072
▁philosophies	-11.0721
unknown	-11.0721
▁comment	-11.0721
▁foolish	-11.0721
▁barber	-11.0721
▁expend	-11.0722
▁boob	-11.0722
▁gemacht	-11.0722
zeug	-11.0722
▁Ohren	-11.0722
ugust	-11.0722
▁scenery	-11.0722
▁Finger	-11.0722
traps	-11.0722
▁naught	-11.0722
▁dangerous	-11.0722
▁Could	-11.0722
▁elend	-11.0722
▁betrüben	-11.0723
▁glare	-11.0723
▁madman	-11.0723
thron	-11.0723
▁fond	-11.0723
▁energy	-11.0723
▁Donner	-11.0724
▁cubi	-11.0724
▁religion	-11.0724
▁MAN	-11.0724
▁remarkable	-11.0724
▁Farewell	-11.0725
▁affectionately	-11.0725
▁director	-11.0725
ERCH	-11.0725
▁frequently	-11.0725
▁tortur	-11.0725
▁DON	-11.0725
▁Loch	-11.0725
▁Gottheit	-11.0726
lutter	-11.0726
▁TRA	-11.0726
▁WOR	-11.0726
LU	-11.0726
▁sway	-11.0726
▁altar	-11.0726
▁stake	-11.0727
▁edge	-11.0727
▁Bible	-11.0727
▁premier	-11.0727
▁dumm	-11.0728
▁Kuß	-11.0728
okus	-11.0728
rucht	-11.0728
HT	-11.0728
▁fancie	-11.0728
ütze	-11.0729
sually	-11.0729
▁Lake	-11.0729
▁enthusiast	-11.0729
▁perish	-11.073
▁moldy	-11.073
▁mute	-11.0731
Singt	-11.0731
▁wherefore	-11.0732
ENCE	-11.0732
haßt	-11.0732
▁actually	-11.0733
▁wake	-11.0733
▁Refu	-11.0733
▁objection	-11.0733
▁vun	-11.0733
▁corp	-11.0733
ducti	-11.0734
▁sought	-11.0734
▁Klang	-11.0734
▁Frieden	-11.0734
▁Geht	-11.0734
▁theory	-11.0734
▁somehow	-11.0734
▁vau	-11.0735
▁vanishes	-11.0735
ancing	-11.0735
▁signor	-11.0735
▁exalted	-11.0737
spalten	-11.0737
▁para	-11.0737
▁Schick	-11.0737
▁dank	-11.0738
▁wagen	-11.0738
▁scale	-11.0738
▁shut	-11.0738
▁fountain	-11.0739
▁Since	-11.0739
▁hinzu	-11.0739
▁Pult	-11.0739
fied	-11.074
▁Fuß	-11.074
▁naturally	-11.0741
▁heap	-11.0741
▁restless	-11.0742
▁OW	-11.0742
▁pious	-11.0742
▁Kleinen	-11.0743
▁pose	-11.0743
byss	-11.0743
ltig	-11.0743
▁lernen	-11.0743
▁deepest	-11.0744
▁nag	-11.0744
▁leuchtet	-11.0744
▁treiben	-11.0744
▁Hurry	-11.0746
▁cou	-11.0746
arole	-11.0746
▁stir	-11.0747
▁Therefore	-11.0747
ebit	-11.0747
▁Glauben	-11.0748
▁lend	-11.0748
▁scheu	-11.0748
▁Trauben	-11.0748
▁overthrow	-11.0748
▁gayly	-11.0748
▁pensively	-11.0748
▁SERVANTS	-11.0749
▁Mauern	-11.0749
▁kisses	-11.0749
▁nimmer	-11.0749
▁rouse	-11.075
▁crash	-11.0751
15	-11.0751
▁stain	-11.0753
racious	-11.0753
▁height	-11.0754
▁solicitation	-11.0755
▁immediately	-11.0756
▁entsteht	-11.0756
▁restore	-11.0756
▁saß	-11.0757
▁SUC	-11.0757
▁Gau	-11.0758
▁obliged	-11.0758
▁decided	-11.0758
▁vest	-11.076
▁garter	-11.076
▁Gesetz	-11.0761
▁feine	-11.0761
lernt	-11.0762
▁Moo	-11.0762
▁rasch	-11.0762
▁silly	-11.0763
▁stretches	-11.0763
üche	-11.0764
▁kehrt	-11.0765
▁proprietary	-11.0765
▁dearest	-11.0766
▁weiche	-11.0766
IN	-11.0768
▁Ketten	-11.0768
▁solemnly	-11.0771
▁net	-11.0772
▁Pier	-11.0773
▁contemplate	-11.0774
▁hello	-11.0776
suring	-11.0779
▁Laube	-11.0782
▁viewed	-11.0782
▁flies	-11.0783
außen	-11.0784
▁tie	-11.0784
▁gehört	-11.0784
▁Lucia	-11.0785
▁env	-11.0786
üsse	-11.079
▁hunger	-11.0792
51	-11.0793
▁load	-11.0793
MEDI	-11.0796
▁suspected	-11.0798
▁reflected	-11.0798
▁effected	-11.0798
▁cog	-11.0799
▁Leuten	-11.0801
gone	-11.0801
impatient	-11.0801
▁curbing	-11.0801
▁Gaben	-11.0803
▁fashion	-11.0805
robbed	-11.0806
▁Pity	-11.0806
▁hohl	-11.0807
▁seriously	-11.0807
▁Five	-11.0808
▁refused	-11.0809
urden	-11.081
▁ehren	-11.0811
▁suffering	-11.0821
▁pest	-11.0825
▁drauß	-11.0825
▁ripp	-11.0825
▁early	-11.0829
durch	-11.083
▁reichen	-11.083
▁brightly	-11.0834
▁glanced	-11.0834
accurate	-11.0837
▁successful	-11.0839
▁fake	-11.084
▁fangen	-11.0841
▁increased	-11.0843
▁Eng	-11.0849
▁closely	-11.085
trudel	-11.0851
▁whoop	-11.0854
eigner	-11.0865
oppel	-11.0872
▁exclusi	-11.0873
END	-11.0877
▁convince	-11.0878
iller	-11.0882
▁Gottes	-11.0888
▁accuse	-11.0889
▁sleepy	-11.0895
▁glower	-11.0897
▁Bilder	-11.0901
Replace	-11.0904
▁Bäume	-11.0906
▁contribut	-11.0912
▁Fest	-11.0912
▁Weit	-11.0912
awk	-11.0914
fährt	-11.094
ncies	-11.0942
▁wähl	-11.0943
▁Hur	-11.095
turm	-11.0957
▁Decke	-11.0957
▁tur	-11.0961
leiten	-11.0965
last	-11.0966
ANTAS	-11.0979
▁garb	-11.0983
rown	-11.0983
▁attendant	-11.0992
▁Munde	-11.0993
▁vow	-11.1002
▁increase	-11.1009
▁Lor	-11.1016
Dorn	-11.1019
lousy	-11.1022
AST	-11.1049
uveni	-11.1049
▁workingm	-11.1053
ahlen	-11.1061
ature	-11.1062
▁kenne	-11.1089
▁riches	-11.1099
▁liebste	-11.1108
▁zo	-11.1114
▁opportunit	-11.1127
LER	-11.1161
hnlich	-11.1165
repress	-11.1211
▁seal	-11.1229
deckt	-11.1238
▁fremde	-11.1256
▁sav	-11.1257
Two	-11.1283
▁Gran	-11.1291
▁Ehren	-11.1303
principle	-11.1306
scar	-11.1311
▁Liebende	-11.1324
▁lion	-11.134
▁Late	-11.136
▁CONT	-11.1399
berate	-11.1423
▁arti	-11.1459
▁dumpfe	-11.1469
▁declare	-11.1481
▁Bau	-11.152
▁Volke	-11.1525
▁Stev	-11.1543
RO	-11.1547
SEND	-11.1549
▁Rede	-11.157
▁Hof	-11.1585
glühend	-11.1595
▁Verfluchte	-11.1596
▁carri	-11.1598
▁Tau	-11.1644
teilen	-11.1672
ongo	-11.1687
Mist	-11.1725
▁Ganze	-11.1812
▁opposit	-11.1964
▁Spa	-11.2012
ight	-11.2117
▁bounc	-11.2125
▁erblick	-11.2127
Tak	-11.2134
▁Weil	-11.2149
▁eigne	-11.2239
▁struggl	-11.2247
RIG	-11.2347
AVE	-11.2375
eiße	-11.2431
OP	-11.2444
▁yo	-11.2529
▁gna	-11.2566
arrow	-11.2582
schnau	-11.2585
bekannte	-11.2643
care	-11.2678
NT	-11.2748
aving	-11.2776
▁syn	-11.2799
▁furious	-11.2813
egt	-11.2867
solicited	-11.2879
▁swim	-11.288
nternal	-11.2886
tional	-11.2939
▁Interna	-11.294
begreif	-11.2973
lisch	-11.3001
driver	-11.306
nicht	-11.3065
▁dumpf	-11.3083
▁kenn	-11.3218
▁Spar	-11.3249
USA	-11.3266
▁porti	-11.3278
▁wunderliche	-11.3286
anna	-11.3303
▁accus	-11.332
EAS	-11.3323
▁fremd	-11.334
▁charit	-11.3377
otte	-11.3561
▁Gewö	-11.3565
ireless	-11.3572
nommen	-11.3578
marks	-11.3596
änger	-11.3649
tones	-11.3676
ontact	-11.3679
earing	-11.371
▁pimp	-11.3714
fähr	-11.374
▁Spe	-11.3748
▁practic	-11.3762
tribution	-11.3775
▁horse	-11.3776
▁Zo	-11.3776
▁bird	-11.3779
▁shape	-11.378
▁volunteer	-11.3785
▁lamp	-11.3791
azing	-11.3813
▁receiv	-11.3814
▁bleib	-11.3841
▁Unter	-11.3845
unti	-11.3854
▁simpl	-11.3857
▁crim	-11.3881
▁logic	-11.3888
▁fiddl	-11.3899
▁repent	-11.3903
lthough	-11.3904
lowing	-11.3908
dress	-11.3933
▁gehör	-11.3949
▁Verzeih	-11.3952
▁accur	-11.3959
▁nigh	-11.3961
gott	-11.3962
▁disclaim	-11.3963
▁gib	-11.3971
kehrt	-11.3976
proprietary	-11.3976
profit	-11.3978
Thank	-11.3979
PLA	-11.3979
spread	-11.398
hidden	-11.398
grim	-11.398
Long	-11.398
DIRE	-11.398
direct	-11.3981
▁shudder	-11.3981
▁roar	-11.3981
▁Fliege	-11.3981
interrupt	-11.3982
approach	-11.3982
Miss	-11.3982
dozen	-11.3982
welche	-11.3982
Salvini	-11.3983
Heaven	-11.3983
course	-11.3983
With	-11.3983
Queen	-11.3983
▁shiver	-11.3983
Blanche	-11.3983
▁rasc	-11.3983
eBook	-11.3984
trademark	-11.3984
twenty	-11.3984
▁threat	-11.3984
indem	-11.3984
▁Geselle	-11.3984
WORM	-11.3984
MILLER	-11.3984
girl	-11.3984
▁Füße	-11.3985
dark	-11.3985
▁suspicio	-11.3986
▁terribl	-11.3986
door	-11.3987
tausend	-11.3987
down	-11.3988
höhe	-11.3989
Whi	-11.3989
year	-11.3991
copyright	-11.3991
Never	-11.3993
▁succeed	-11.3995
▁gain	-11.3995
▁proceed	-11.3996
▁crook	-11.3997
venge	-11.3998
ACT	-11.3998
▁Glaub	-11.3999
without	-11.4
▁erkenn	-11.4001
lover	-11.4001
ooting	-11.4002
since	-11.4003
▁gla	-11.4007
leather	-11.401
quick	-11.4019
GL	-11.4019
▁Jung	-11.402
His	-11.402
▁anxious	-11.4021
▁casual	-11.4022
▁colo	-11.4024
licit	-11.4025
▁actual	-11.4025
▁monoton	-11.4025
▁communi	-11.4026
▁Tap	-11.4028
▁miser	-11.4031
▁yell	-11.4031
▁cloth	-11.4033
▁origina	-11.4033
eriously	-11.4035
elieve	-11.4036
LIE	-11.4036
▁tea	-11.4036
opyright	-11.4036
▁Nothin	-11.4036
▁somethin	-11.4036
duce	-11.4037
▁IMP	-11.4037
▁moth	-11.4037
rochen	-11.4039
▁cell	-11.404
ipfel	-11.4042
BILITY	-11.4042
▁Neb	-11.4042
▁corrupt	-11.4043
ompliance	-11.4043
gular	-11.4043
locke	-11.4044
▁treat	-11.4044
rofessor	-11.4044
anguage	-11.4045
äßt	-11.4045
Spec	-11.4045
▁detect	-11.4045
erfluchte	-11.4045
olunteers	-11.4045
eautiful	-11.4045
▁preci	-11.4046
hibition	-11.4046
,000	-11.4046
exhaust	-11.4046
▁Silen	-11.4047
‘	-11.4047
decipher	-11.4047
▁LIAB	-11.4047
▁provok	-11.4047
ESTER	-11.4047
predatory	-11.4047
▁WIND	-11.4047
▁belabor	-11.4047
▁overwhelm	-11.4047
▁recommend	-11.4047
▁revolt	-11.4047
▁revolv	-11.4047
▁stencil	-11.4047
▁voluntar	-11.4047
▁whinny	-11.4047
%	-11.4047
+	-11.4047
ARY	-11.4047
AUER	-11.4047
Next	-11.4047
OLK	-11.4047
STRI	-11.4047
Weintraub	-11.4047
approbation	-11.4047
blooded	-11.4047
comprehensible	-11.4047
conclude	-11.4047
glanz	-11.4047
ivilization	-11.4047
jagen	-11.4047
obblestones	-11.4047
otatoes	-11.4047
precedent	-11.4047
räte	-11.4047
scrapers	-11.4047
uditorium	-11.4047
zunehmen	-11.4047
ändig	-11.4047
▁360	-11.4047
▁Beethoven	-11.4047
▁Bernhardt	-11.4047
▁Blatt	-11.4047
▁Blätter	-11.4047
▁Brunnen	-11.4047
▁CHICAGO	-11.4047
▁Caesar	-11.4047
▁ERSTER	-11.4047
▁Ebenbild	-11.4047
▁Elizabeth	-11.4047
▁Ellenbogen	-11.4047
▁Erbstein	-11.4047
▁Erdensohn	-11.4047
▁Ergetzen	-11.4047
▁Erquickung	-11.4047
▁Erscheinung	-11.4047
▁Finsternis	-11.4047
▁Fläschchen	-11.4047
▁Francisco	-11.4047
▁Gedräng	-11.4047
▁Gewerb	-11.4047
▁Gewinn	-11.4047
▁Gewühl	-11.4047
▁Grimm	-11.4047
▁Hershela	-11.4047
▁Hochzeit	-11.4047
▁INTRIGUE	-11.4047
▁Incredible	-11.4047
▁Klarheit	-11.4047
▁Knaben	-11.4047
▁Kreuz	-11.4047
▁Leidenschaft	-11.4047
▁Leipzig	-11.4047
▁Länder	-11.4047
▁Länge	-11.4047
▁Lügner	-11.4047
▁MAJOR	-11.4047
▁Medizin	-11.4047
▁Minister	-11.4047
▁Mitternacht	-11.4047
▁Moscow	-11.4047
▁Muhme	-11.4047
▁Mär	-11.4047
▁Mörder	-11.4047
▁Mückennas	-11.4047
▁Officers	-11.4047
▁Pedlowski	-11.4047
▁Pferdefuß	-11.4047
▁Puritan	-11.4047
▁Rätsel	-11.4047
▁SCHÖNE	-11.4047
▁Saturday	-11.4047
▁Schwester	-11.4047
▁Schätzen	-11.4047
▁Stärke	-11.4047
▁Stätte	-11.4047
▁Tattoo	-11.4047
▁Trümmern	-11.4047
▁Täler	-11.4047
▁Vergnügen	-11.4047
▁Verzweif	-11.4047
▁Wolken	-11.4047
▁Wrigley	-11.4047
▁Würm	-11.4047
▁Yiddish	-11.4047
▁ZWEITE	-11.4047
▁accomplish	-11.4047
▁afford	-11.4047
▁aggravati	-11.4047
▁aimlessness	-11.4047
▁anguish	-11.4047
▁arpeggios	-11.4047
▁banalities	-11.4047
▁belief	-11.4047
▁breadwinner	-11.4047
▁bureau	-11.4047
▁cautiously	-11.4047
▁champion	-11.4047
▁chauffeur	-11.4047
▁chickens	-11.4047
▁collapse	-11.4047
▁college	-11.4047
▁comprehen	-11.4047
▁contemporaries	-11.4047
▁corridors	-11.4047
▁counsel	-11.4047
▁cuspidor	-11.4047
▁cynical	-11.4047
▁delusion	-11.4047
▁develop	-11.4047
▁disillusion	-11.4047
▁doltish	-11.4047
▁dächt	-11.4047
▁dürre	-11.4047
▁ebony	-11.4047
▁empfangen	-11.4047
▁emphasis	-11.4047
▁ennuyier	-11.4047
▁entfernt	-11.4047
▁erfüllen	-11.4047
▁ergetzen	-11.4047
▁eulog	-11.4047
▁exclaimed	-11.4047
▁exemplary	-11.4047
▁experiment	-11.4047
▁explode	-11.4047
▁exquisite	-11.4047
▁fervent	-11.4047
▁flourishe	-11.4047
▁förder	-11.4047
▁gallows	-11.4047
▁gedacht	-11.4047
▁gemeint	-11.4047
▁geschrieben	-11.4047
▁gewgaws	-11.4047
▁glissando	-11.4047
▁glisten	-11.4047
▁gnäd	-11.4047
▁goggles	-11.4047
▁gönn	-11.4047
▁harlot	-11.4047
▁harmonica	-11.4047
▁hobgoblin	-11.4047
▁holiday	-11.4047
▁hurrah	-11.4047
▁hängen	-11.4047
▁hängt	-11.4047
▁häufen	-11.4047
▁ignorant	-11.4047
▁immobil	-11.4047
▁inevitable	-11.4047
▁inexperience	-11.4047
▁injure	-11.4047
▁intrude	-11.4047
▁jigs	-11.4047
▁juniper	-11.4047
▁käm	-11.4047
▁können	-11.4047
▁liberty	-11.4047
▁lonesome	-11.4047
▁mathematic	-11.4047
▁muscles	-11.4047
▁nibbl	-11.4047
▁nuptial	-11.4047
▁nymphs	-11.4047
▁obedience	-11.4047
▁optimis	-11.4047
▁petrified	-11.4047
▁pillars	-11.4047
▁plague	-11.4047
▁poignant	-11.4047
▁practise	-11.4047
▁primitive	-11.4047
▁private	-11.4047
▁privilege	-11.4047
▁profession	-11.4047
▁proscenium	-11.4047
▁puckered	-11.4047
▁puppet	-11.4047
▁pursuit	-11.4047
▁qualifications	-11.4047
▁quäl	-11.4047
▁radical	-11.4047
▁rapturous	-11.4047
▁rehearsal	-11.4047
▁relatives	-11.4047
▁respond	-11.4047
▁resumes	-11.4047
▁rhummy	-11.4047
▁riveted	-11.4047
▁rooster	-11.4047
▁sandwich	-11.4047
▁satisfaction	-11.4047
▁sceptre	-11.4047
▁schloß	-11.4047
▁schwitzen	-11.4047
▁scratch	-11.4047
▁separating	-11.4047
▁slept	-11.4047
▁speculati	-11.4047
▁sprüh	-11.4047
▁spät	-11.4047
▁stairway	-11.4047
▁streuen	-11.4047
▁strict	-11.4047
▁tausendfach	-11.4047
▁technique	-11.4047
▁terrify	-11.4047
▁teuflisch	-11.4047
▁thoroughly	-11.4047
▁tranquil	-11.4047
▁tranquillity	-11.4047
▁treason	-11.4047
▁trench	-11.4047
▁tungstens	-11.4047
▁twinkl	-11.4047
▁umgebracht	-11.4047
▁universe	-11.4047
▁unlived	-11.4047
▁upstairs	-11.4047
▁verdrießen	-11.4047
▁verschmäht	-11.4047
▁villany	-11.4047
▁wunderbar	-11.4047
▁wünsche	-11.4047
▁wütend	-11.4047
▁yourselves	-11.4047
▁ängst	-11.4047
Große	-11.4047
abyrinth	-11.4047
chwankende	-11.4047
muttering	-11.4047
▁75	-11.4047
▁Brislane	-11.4047
▁Crane	-11.4047
▁Dräng	-11.4047
▁Hügel	-11.4047
▁Ließ	-11.4047
▁OFFICERS	-11.4047
▁Philosoph	-11.4047
▁Schopenhauer	-11.4047
▁Wandrer	-11.4047
▁Wölb	-11.4047
▁assassin	-11.4047
▁benefi	-11.4047
▁conviction	-11.4047
▁deceivin	-11.4047
▁disdain	-11.4047
▁dispose	-11.4047
▁gorgeous	-11.4047
▁impersona	-11.4047
▁magician	-11.4047
▁nächt	-11.4047
▁nützen	-11.4047
▁precipice	-11.4047
▁rogue	-11.4047
▁schnoper	-11.4047
▁shawl	-11.4047
▁stieß	-11.4047
▁undertaker	-11.4047
▁unschuldig	-11.4047
▁whimsical	-11.4047
▁wiederholt	-11.4047
Leise	-11.4047
eremonie	-11.4047
ervitude	-11.4047
grudge	-11.4047
irecracker	-11.4047
▁Answer	-11.4047
▁Friend	-11.4047
▁Gehorche	-11.4047
▁Gnaden	-11.4047
▁Gönn	-11.4047
▁Irrlicht	-11.4047
▁Oranges	-11.4047
▁Pierrots	-11.4047
▁Puppe	-11.4047
▁Schloß	-11.4047
▁Schüler	-11.4047
▁bloß	-11.4047
▁bootlegger	-11.4047
▁bridal	-11.4047
▁broad	-11.4047
▁convention	-11.4047
▁disorder	-11.4047
▁enemies	-11.4047
▁faraway	-11.4047
▁grocer	-11.4047
▁kinsman	-11.4047
▁knicken	-11.4047
▁racing	-11.4047
▁robbery	-11.4047
▁scoff	-11.4047
▁skirt	-11.4047
▁slippery	-11.4047
▁supper	-11.4047
▁voluptuous	-11.4047
▁Bleib	-11.4047
▁Circe	-11.4047
▁Creat	-11.4047
▁Mammon	-11.4047
▁Rauschen	-11.4047
▁Tiefe	-11.4047
▁Villon	-11.4047
▁bauble	-11.4047
▁brood	-11.4047
▁conquest	-11.4047
▁divide	-11.4047
▁enchant	-11.4047
▁everlasting	-11.4047
▁factories	-11.4047
▁küssen	-11.4047
▁lizard	-11.4047
▁lofty	-11.4047
▁lyric	-11.4047
▁obvious	-11.4047
▁otherwise	-11.4047
▁pianist	-11.4047
▁purple	-11.4047
▁throbbing	-11.4047
▁tidings	-11.4047
▁unfold	-11.4047
efinition	-11.4047
gesellen	-11.4047
▁Krieg	-11.4047
▁Schlaf	-11.4047
▁furnish	-11.4047
▁gallop	-11.4047
▁grieve	-11.4047
▁parlor	-11.4047
▁presumpt	-11.4047
▁quiver	-11.4047
▁sustain	-11.4047
▁unendliche	-11.4047
▁vivid	-11.4047
kleidet	-11.4047
otti	-11.4047
snatch	-11.4047
▁Fremde	-11.4047
▁Magister	-11.4047
▁Schoß	-11.4047
▁consciousness	-11.4047
▁fließt	-11.4047
▁flood	-11.4047
▁likewise	-11.4047
▁record	-11.4047
▁rigid	-11.4047
▁schmeck	-11.4047
erlei	-11.4047
▁flapping	-11.4047
▁lazy	-11.4047
▁strenge	-11.4047
▁suave	-11.4047
▁verrückt	-11.4047
kraft	-11.4047
▁beneide	-11.4047
▁obstina	-11.4047
▁Geschenk	-11.4047
▁Zweck	-11.4047
▁daffy	-11.4047
▁falter	-11.4047
▁gallon	-11.4047
▁swoon	-11.4047
▁Geschrieb	-11.4047
▁Schmaus	-11.4047
▁Spott	-11.4047
▁bulge	-11.4047
▁kochen	-11.4047
▁pledge	-11.4047
▁sisters	-11.4047
▁taboo	-11.4047
▁unluck	-11.4047
verschwindet	-11.4047
▁ALLE	-11.4047
▁Grauen	-11.4047
▁Hovey	-11.4047
▁Museum	-11.4047
▁Windows	-11.4047
▁carpet	-11.4047
▁nevertheless	-11.4047
▁reverse	-11.4047
▁Braut	-11.4047
▁High	-11.4047
▁darauf	-11.4047
▁unseeing	-11.4047
wendig	-11.4047
▁ardent	-11.4047
▁strip	-11.4047
▁trockne	-11.4047
▁balloon	-11.4047
▁cartoon	-11.4047
▁schmeichelt	-11.4047
itiful	-11.4047
▁juice	-11.4047
impetuous	-11.4047
▁Poeten	-11.4047
▁erscheinen	-11.4047
▁World	-11.4047
▁adorn	-11.4047
▁wißt	-11.4047
▁Himmelslicht	-11.4047
▁intentions	-11.4047
▁sixteen	-11.4047
gewendet	-11.4047
▁Linde	-11.4047
▁Zeche	-11.4047
▁trapp	-11.4047
.50	-11.4047
jauchze	-11.4047
▁motif	-11.4047
▁ersticken	-11.4047
▁Verstand	-11.4047
▁esteem	-11.4047
▁fragments	-11.4047
▁ficht	-11.4047
▁institution	-11.4047
▁alliance	-11.4047
▁ergreift	-11.4047
▁geführt	-11.4047
▁grandeur	-11.4047
▁sticht	-11.4047
▁Hotel	-11.4047
▁Sarah	-11.4047
▁gescheit	-11.4047
▁feurig	-11.4047
▁modest	-11.4047
▁Selig	-11.4047
▁assort	-11.4047
▁exaggerat	-11.4047
▁lump	-11.4047
▁fetch	-11.4047
▁Schuld	-11.4047
ebraucht	-11.4047
▁192	-11.4047
▁Hinter	-11.4047
92	-11.4047
▁harp	-11.4047
▁stirring	-11.4047
▁Winter	-11.4047
▁bannt	-11.4047
▁flattering	-11.4047
▁Buhle	-11.4047
▁schaden	-11.4047
▁vindicat	-11.4047
IDENT	-11.4047
▁Ireland	-11.4047
▁celebrating	-11.4047
▁falsch	-11.4047
▁conclusion	-11.4047
▁drehen	-11.4047
▁victor	-11.4047
▁Year	-11.4047
▁belehr	-11.4047
▁feuchte	-11.4047
▁gelingen	-11.4047
▁Pull	-11.4047
▁entzwei	-11.4047
▁plent	-11.4047
▁theologi	-11.4047
▁Schaden	-11.4047
▁Slav	-11.4047
chimpf	-11.4047
▁Drunk	-11.4047
▁melodi	-11.4047
bsurd	-11.4047
baum	-11.4047
▁maca	-11.4047
▁stolen	-11.4047
▁cosmo	-11.4047
▁criss	-11.4047
▁malice	-11.4047
▁nackt	-11.4047
▁preoccupied	-11.4047
▁oud	-11.4047
opside	-11.4047
▁Dahin	-11.4047
▁bathers	-11.4047
▁Schwebe	-11.4047
▁shrink	-11.4047
▁tinny	-11.4047
aternal	-11.4047
▁Dilettant	-11.4047
▁Hilf	-11.4047
▁strain	-11.4047
OLD	-11.4047
▁affected	-11.4047
▁hooded	-11.4047
▁seduce	-11.4047
▁Publicity	-11.4047
▁grain	-11.4047
▁lull	-11.4047
▁krieg	-11.4047
▁renew	-11.4047
▁Euer	-11.4048
▁appetite	-11.4048
▁tinsel	-11.4048
▁beckon	-11.4048
▁Sagt	-11.4048
▁insured	-11.4048
▁penny	-11.4048
▁Becher	-11.4048
▁singular	-11.4048
propos	-11.4048
▁persist	-11.4048
▁summon	-11.4048
▁dragged	-11.4048
▁Musik	-11.4048
▁east	-11.4048
▁knavery	-11.4048
▁Versteh	-11.4048
▁lacking	-11.4048
▁extremities	-11.4048
▁insane	-11.4048
▁Faden	-11.4048
▁inheritance	-11.4048
Wanna	-11.4048
▁saint	-11.4048
▁contagio	-11.4048
▁Pizzicato	-11.4048
▁Geleit	-11.4048
schleiche	-11.4048
▁envious	-11.4048
▁weicht	-11.4048
▁repose	-11.4048
arrior	-11.4048
▁Charl	-11.4048
▁besprechen	-11.4048
▁ledge	-11.4048
▁unwrapping	-11.4048
▁welk	-11.4048
▁deucht	-11.4048
uke	-11.4048
▁Indeed	-11.4048
▁cigarette	-11.4048
ffhand	-11.4048
▁202	-11.4048
▁Fahr	-11.4048
▁beetle	-11.4048
▁strength	-11.4048
▁dawn	-11.4048
▁Wachs	-11.4048
▁minnow	-11.4048
inesgleichen	-11.4048
▁Rome	-11.4048
disgust	-11.4048
▁Store	-11.4048
▁Pferde	-11.4048
▁interior	-11.4049
BUT	-11.4049
▁Zeig	-11.4049
gewisse	-11.4049
ünf	-11.4049
▁Schnecke	-11.4049
▁spell	-11.4049
▁feather	-11.4049
▁ridicul	-11.4049
ngement	-11.4049
▁pigeon	-11.4049
obbing	-11.4049
oßnen	-11.4049
▁Wales	-11.4049
▁recent	-11.4049
▁Lüfte	-11.4049
▁narrow	-11.4049
einetwillen	-11.4049
feld	-11.4049
▁quer	-11.4049
egged	-11.4049
glas	-11.4049
niedrig	-11.4049
▁betrogen	-11.4049
▁praise	-11.4049
▁WALTER	-11.4049
▁Blend	-11.4049
▁gesteh	-11.4049
▁June	-11.4049
▁Besuch	-11.4049
aaa	-11.4049
▁burden	-11.4049
▁drückt	-11.4049
▁heaviest	-11.4049
TOPH	-11.4049
▁Fear	-11.4049
▁queen	-11.4049
▁Inside	-11.4049
▁deinesgleichen	-11.4049
CHÖ	-11.405
▁Flü	-11.405
▁stoical	-11.405
▁disclose	-11.405
▁grinning	-11.405
▁buzz	-11.405
▁expose	-11.405
▁savage	-11.405
▁murderuh	-11.405
▁35	-11.405
▁patterns	-11.405
▁sorgen	-11.405
retreat	-11.405
▁barbar	-11.405
▁immemorial	-11.405
▁risk	-11.405
▁Papier	-11.405
▁phantas	-11.405
▁fragile	-11.4051
▁vaunt	-11.4051
▁striving	-11.4051
▁corruption	-11.4051
ehind	-11.4051
▁hemmt	-11.4051
▁remarks	-11.4051
▁Kühn	-11.4051
▁breed	-11.4051
▁rabbi	-11.4051
▁Zauberei	-11.4051
▁precise	-11.4051
▁stool	-11.4051
▁illogical	-11.4051
▁Deever	-11.4051
Embracing	-11.4051
▁Step	-11.4051
▁Quick	-11.4051
▁gaffen	-11.4051
▁Clare	-11.4051
▁verbirg	-11.4051
▁government	-11.4051
Return	-11.4051
▁Lieg	-11.4052
erbach	-11.4052
▁Gipfel	-11.4052
▁neige	-11.4052
▁plump	-11.4052
▁durcheinander	-11.4052
▁Franz	-11.4052
plied	-11.4052
▁ecstasy	-11.4052
▁tragedy	-11.4052
▁protest	-11.4052
▁clink	-11.4052
▁heroes	-11.4052
▁idee	-11.4052
schreiben	-11.4052
▁Bitt	-11.4052
ffect	-11.4053
▁Strecke	-11.4053
▁defend	-11.4053
▁everyding	-11.4053
ühlen	-11.4053
▁Küche	-11.4053
▁bury	-11.4053
▁resolution	-11.4053
ollect	-11.4053
▁MIN	-11.4053
▁mold	-11.4053
▁Ernst	-11.4053
▁eagerness	-11.4053
▁firmness	-11.4053
▁entertainment	-11.4053
▁viper	-11.4054
▁Swed	-11.4054
mpire	-11.4054
▁Bart	-11.4054
▁triumphant	-11.4054
hamberlain	-11.4054
▁Jesu	-11.4054
▁compose	-11.4054
ensible	-11.4054
▁Lager	-11.4054
▁cash	-11.4055
▁button	-11.4055
▁Zieg	-11.4055
▁Italy	-11.4055
▁soldier	-11.4055
ulgar	-11.4055
▁drone	-11.4055
▁equi	-11.4055
88	-11.4055
▁daring	-11.4056
▁troop	-11.4056
rwarte	-11.4056
secrat	-11.4056
▁wring	-11.4056
▁Wild	-11.4056
▁wept	-11.4056
▁laborers	-11.4056
▁cello	-11.4056
▁slop	-11.4057
▁dafür	-11.4057
▁push	-11.4057
iedersehn	-11.4057
loiter	-11.4057
▁bigger	-11.4057
▁regardless	-11.4057
▁empties	-11.4057
▁luxuries	-11.4057
▁Sehnen	-11.4057
▁Feder	-11.4057
emmt	-11.4058
▁Roman	-11.4058
▁cheerless	-11.4058
MER	-11.4058
chluß	-11.4058
▁seventy	-11.4058
▁qualit	-11.4058
hounds	-11.4058
▁confus	-11.4058
▁whang	-11.4059
▁höl	-11.4059
▁Kammer	-11.4059
▁Norden	-11.4059
obbies	-11.4059
▁sunset	-11.4059
▁cott	-11.4059
▁Reich	-11.406
▁Trinke	-11.406
▁Temp	-11.406
▁shill	-11.406
▁boom	-11.406
hony	-11.4061
kreis	-11.4061
▁Indes	-11.4061
▁grop	-11.4061
KER	-11.4061
▁meaningless	-11.4061
neigt	-11.4061
▁embroidery	-11.4061
rosy	-11.4061
▁camp	-11.4061
ollow	-11.4061
▁disapp	-11.4062
▁Erinn	-11.4062
▁sacht	-11.4062
▁shaft	-11.4063
roe	-11.4063
knowledge	-11.4063
▁toga	-11.4063
▁nerv	-11.4063
NTI	-11.4063
▁beef	-11.4064
▁fireman	-11.4064
▁White	-11.4064
▁Rock	-11.4064
▁Fast	-11.4064
▁perfid	-11.4064
▁Road	-11.4065
▁uneaten	-11.4065
▁leib	-11.4065
▁season	-11.4065
▁fürchte	-11.4065
▁cock	-11.4065
▁feeble	-11.4065
▁relieve	-11.4066
▁miß	-11.4066
▁chant	-11.4066
▁offhand	-11.4067
▁Fiel	-11.4067
▁unmanne	-11.4067
▁erstanden	-11.4067
▁Wette	-11.4067
▁decent	-11.4067
▁worthless	-11.4067
straum	-11.4068
▁Stich	-11.4068
▁piqu	-11.4068
▁protection	-11.4068
▁Water	-11.4068
▁bench	-11.4069
derman	-11.407
▁Wonder	-11.4071
▁Beding	-11.4071
▁cities	-11.4072
▁Rauch	-11.4072
dams	-11.4072
▁fever	-11.4072
▁sentimental	-11.4073
▁careless	-11.4073
▁zog	-11.4073
▁Wedel	-11.4073
ictur	-11.4073
▁dolls	-11.4073
▁hick	-11.4074
▁nine	-11.4074
▁Gebet	-11.4074
neben	-11.4075
▁jack	-11.4076
roffen	-11.4076
▁recit	-11.4076
▁electricity	-11.4076
▁gesund	-11.4076
unsch	-11.4076
▁Felsenw	-11.4077
▁dispense	-11.4077
▁apologiz	-11.4078
▁abzu	-11.4078
▁gate	-11.4078
▁endure	-11.4078
pron	-11.4079
▁Lachen	-11.4079
eceive	-11.408
▁Belieb	-11.408
▁wenden	-11.408
▁sadden	-11.408
annibal	-11.408
▁kings	-11.408
brechen	-11.4082
▁invest	-11.4082
▁bomba	-11.4082
▁Wink	-11.4082
▁Bund	-11.4082
▁Rolle	-11.4082
▁steam	-11.4082
▁sadness	-11.4083
▁voraus	-11.4083
ehagen	-11.4084
▁courtier	-11.4084
▁devilish	-11.4085
▁market	-11.4086
▁Trug	-11.4087
▁consideration	-11.4088
▁Zunge	-11.4088
qual	-11.4089
▁comb	-11.409
▁conception	-11.4091
klingen	-11.4091
▁Rö	-11.4091
▁whip	-11.4092
▁Huh	-11.4092
▁Hans	-11.4092
▁eigen	-11.4093
gebunden	-11.4093
▁Bub	-11.4094
▁schier	-11.4094
crep	-11.4095
assion	-11.4095
▁dearie	-11.4096
▁partner	-11.4097
▁Entzück	-11.4097
▁abend	-11.4097
▁mysteri	-11.4099
▁Bach	-11.4099
▁devote	-11.4099
▁heels	-11.4101
wolle	-11.4103
▁poem	-11.4103
▁Stürz	-11.4106
▁höh	-11.4108
ski	-11.4109
Start	-11.411
▁bug	-11.4113
iety	-11.4114
tiring	-11.4118
ARI	-11.4118
cipal	-11.4121
▁Spani	-11.4122
▁rette	-11.4122
agger	-11.4124
übs	-11.4126
▁dismal	-11.4127
▁Fals	-11.4138
lice	-11.4153
▁exception	-11.4154
▁manicur	-11.4155
mpah	-11.4159
▁abgeschmackt	-11.4159
feste	-11.4164
crow	-11.4167
▁insistent	-11.4167
▁einges	-11.4167
ssieren	-11.4175
worshipper	-11.4182
▁divert	-11.4182
▁guck	-11.4185
▁Dick	-11.4201
logically	-11.4205
olitics	-11.4228
▁Schmach	-11.4231
▁couch	-11.4237
ague	-11.4251
▁preoccup	-11.4261
▁guar	-11.4261
agged	-11.4261
▁licht	-11.4265
waiting	-11.4266
▁financi	-11.4267
accidentally	-11.4322
studiert	-11.4323
Eight	-11.4359
rope	-11.4367
▁scatter	-11.4377
approval	-11.4377
vici	-11.439
▁obey	-11.4429
ragedy	-11.4452
▁sparkle	-11.4459
▁hinder	-11.4462
drinne	-11.4484
sprung	-11.4525
schlaf	-11.4526
ergangen	-11.4529
genommen	-11.4538
▁vermi	-11.4573
schwunden	-11.4611
gnet	-11.4632
▁popp	-11.4661
▁compla	-11.4693
▁festiv	-11.4701
▁joyful	-11.4704
▁terrifi	-11.473
▁Liebste	-11.4741
▁liebende	-11.4744
rches	-11.4771
setzt	-11.4772
rice	-11.4784
▁Lob	-11.4843
lipping	-11.4844
▁Pfa	-11.4847
▁wunderlich	-11.4869
stupidity	-11.4897
Lov	-11.4899
birg	-11.4915
regarding	-11.4937
▁Eise	-11.4979
umbling	-11.5006
Und	-11.509
ühn	-11.5169
dits	-11.5282
▁enigma	-11.5309
astening	-11.5309
erzeh	-11.533
imming	-11.5387
▁frech	-11.5392
furiously	-11.5455
udel	-11.547
Laut	-11.5584
▁earnest	-11.5597
FU	-11.5615
luft	-11.5635
erchance	-11.5723
▁blu	-11.5762
▁eff	-11.5816
Orgel	-11.603
iko	-11.6069
▁tolle	-11.6084
reality	-11.6165
▁observ	-11.6294
▁Mühl	-11.631
▁oppos	-11.6571
rolling	-11.6616
▁dissolv	-11.6622
blickend	-11.6808
▁Ganz	-11.692
earnestly	-11.6932
rushing	-11.6969
▁spie	-11.7077
▁realiz	-11.7178
▁conto	-11.7191
▁Mumb	-11.7326
▁comic	-11.7552
spiring	-11.7592
▁Kirch	-11.7641
winden	-11.7768
▁embrac	-11.7787
▁princip	-11.7816
Laugh	-11.795
rgus	-11.7962
platz	-11.8234
locks	-11.8267
schafft	-11.8277
klärt	-11.828
epid	-11.8328
roduced	-11.838
witched	-11.841
essimistic	-11.8423
ebbe	-11.843
▁approv	-11.8529
▁ALTE	-11.8553
▁schaff	-11.8562
▁employe	-11.8659
▁convinc	-11.8681
ühlt	-11.8683
mbracing	-11.8707
▁Drag	-11.8707
zeiten	-11.8711
carce	-11.8732
erbiet	-11.8757
▁politi	-11.8758
▁advertisement	-11.877
▁road	-11.8775
▁feature	-11.878
▁jewel	-11.8786
üfte	-11.8793
ouched	-11.8804
▁arrange	-11.8817
rüben	-11.8829
ortunately	-11.8829
loud	-11.8831
etti	-11.8838
▁knee	-11.8849
stünd	-11.8856
▁Stro	-11.8856
▁throb	-11.8857
laps	-11.8868
▁circl	-11.8888
weeping	-11.889
▁fliege	-11.8895
aga	-11.8904
nybody	-11.8907
▁gav	-11.8913
ccord	-11.8914
▁figur	-11.8923
▁agoni	-11.8934
DIE	-11.8946
▁entsteh	-11.895
spect	-11.8951
▁strang	-11.8953
▁devo	-11.8955
▁fäng	-11.8956
rächtig	-11.8964
▁Entzü	-11.8965
hakes	-11.8973
▁natur	-11.8976
Hurry	-11.8977
leuchtet	-11.8977
brightly	-11.8977
treiben	-11.8977
alarmed	-11.8978
Margarete	-11.8978
warrant	-11.8978
Marcey	-11.8978
Silence	-11.8978
sprach	-11.8979
clasp	-11.898
hypnotized	-11.898
painted	-11.898
value	-11.898
habit	-11.898
finden	-11.898
▁Traube	-11.898
motion	-11.898
mission	-11.898
extend	-11.898
fifteen	-11.898
schlägt	-11.898
▁lerne	-11.8981
fahren	-11.8981
▁Mauer	-11.8981
birds	-11.8981
fängt	-11.8981
mount	-11.8981
observe	-11.8981
wood	-11.8982
parent	-11.8982
post	-11.8982
hastily	-11.8982
begins	-11.8982
Judge	-11.8982
schauen	-11.8982
HEXE	-11.8983
chamber	-11.8983
ürzt	-11.8983
▁Träne	-11.8983
shuffl	-11.8983
vast	-11.8983
fortune	-11.8983
yellow	-11.8983
following	-11.8984
Broun	-11.8984
Schneider	-11.8984
Thou	-11.8984
heavy	-11.8984
question	-11.8984
certain	-11.8984
Ferdinand	-11.8985
remember	-11.8985
because	-11.8985
gibt	-11.8985
people	-11.8985
sieht	-11.8985
front	-11.8986
three	-11.8991
licious	-11.8992
▁exalt	-11.8995
▁oppress	-11.8995
darf	-11.8996
▁apolog	-11.8996
dispens	-11.8998
▁Fried	-11.9
spalt	-11.9001
▁Kleine	-11.9002
▁genieß	-11.9003
▁betro	-11.9004
▁despise	-11.9004
▁rememb	-11.9007
arbor	-11.9008
lready	-11.9012
▁premi	-11.9017
trayed	-11.9017
▁frequent	-11.902
9	-11.9022
▁embroider	-11.9023
▁craz	-11.9026
▁marvel	-11.9029
▁empti	-11.9029
▁luxuri	-11.9029
▁philosophi	-11.903
▁glori	-11.9031
hildren	-11.9033
züg	-11.9035
▁dyin	-11.9038
▁befo	-11.9039
▁unpar	-11.904
uppose	-11.9041
▁phant	-11.9041
▁positi	-11.9042
öhnt	-11.9043
▁servi	-11.9043
rified	-11.9043
▁oblivio	-11.9043
riminal	-11.9043
memorial	-11.9043
▁heavi	-11.9044
traight	-11.9044
schnür	-11.9044
evolution	-11.9044
umpfe	-11.9045
▁digni	-11.9045
arvelous	-11.9045
istributed	-11.9045
eaningless	-11.9045
xcuse	-11.9045
fficient	-11.9045
ichtig	-11.9045
▁knave	-11.9045
▁energ	-11.9045
▁horri	-11.9045
escend	-11.9046
präch	-11.9046
▁celebr	-11.9046
▁Paradi	-11.9046
▁inherit	-11.9046
Träume	-11.9046
chmeichel	-11.9046
▁Ripp	-11.9046
distinct	-11.9047
resolve	-11.9047
ographer	-11.9047
mpossible	-11.9047
ntrigue	-11.9047
UCTI	-11.9047
existen	-11.9047
spaziert	-11.9047
▁Perfect	-11.9047
▁Schäfer	-11.9047
▁THUMB	-11.9047
▁eloquen	-11.9047
▁embellish	-11.9047
▁razor	-11.9047
▁twins	-11.9047
▁yawn	-11.9047
zulaufen	-11.9047
▁Besenstiel	-11.9047
▁Empfind	-11.9047
▁Journal	-11.9047
▁Löwen	-11.9047
▁Sabbat	-11.9047
▁acrobat	-11.9047
▁adjust	-11.9047
▁afflict	-11.9047
▁climb	-11.9047
▁clutch	-11.9047
▁conflagration	-11.9047
▁congratulat	-11.9047
▁decay	-11.9047
▁displeas	-11.9047
▁distinguish	-11.9047
▁ekelt	-11.9047
▁enliven	-11.9047
▁enthrall	-11.9047
▁hieroglyph	-11.9047
▁instinct	-11.9047
▁masquerad	-11.9047
▁misunderstand	-11.9047
▁occupy	-11.9047
▁penetrat	-11.9047
▁progress	-11.9047
▁smash	-11.9047
▁smirk	-11.9047
▁sophisticat	-11.9047
▁subjeck	-11.9047
▁supplant	-11.9047
▁symmetr	-11.9047
2229	-11.9047
6784	-11.9047
7988	-11.9047
Artagnan	-11.9047
Clasping	-11.9047
Fixe	-11.9047
McGee	-11.9047
Strik	-11.9047
TERNS	-11.9047
abilities	-11.9047
anständige	-11.9047
astonished	-11.9047
auerhöhle	-11.9047
ausendfä	-11.9047
auszieht	-11.9047
climax	-11.9047
eiertagen	-11.9047
ejoice	-11.9047
enweise	-11.9047
eschämt	-11.9047
extinguish	-11.9047
flügel	-11.9047
höflich	-11.9047
kräfte	-11.9047
kümmern	-11.9047
närrisch	-11.9047
pflücken	-11.9047
plicating	-11.9047
possibility	-11.9047
prägt	-11.9047
resolutely	-11.9047
rgebracht	-11.9047
scrupulous	-11.9047
sphäre	-11.9047
spiegel	-11.9047
stepping	-11.9047
träuche	-11.9047
tröste	-11.9047
täusch	-11.9047
ufmerksam	-11.9047
vögel	-11.9047
wälze	-11.9047
zusammenstürzen	-11.9047
zuziehn	-11.9047
ächeln	-11.9047
ärfe	-11.9047
äufig	-11.9047
ümmel	-11.9047
▁Accident	-11.9047
▁African	-11.9047
▁Alberta	-11.9047
▁Arzenei	-11.9047
▁Attaboy	-11.9047
▁Befriedig	-11.9047
▁Beruf	-11.9047
▁Bohemia	-11.9047
▁Bretter	-11.9047
▁Briton	-11.9047
▁Bräut	-11.9047
▁Brüder	-11.9047
▁Bänder	-11.9047
▁Bürger	-11.9047
▁Cadenzas	-11.9047
▁Chateau	-11.9047
▁Chopin	-11.9047
▁Columbia	-11.9047
▁Constantinus	-11.9047
▁Continue	-11.9047
▁Coquelin	-11.9047
▁Corinth	-11.9047
▁Corliss	-11.9047
▁DRITTER	-11.9047
▁Dakotas	-11.9047
▁Danube	-11.9047
▁Davidson	-11.9047
▁Doorways	-11.9047
▁Dudelsack	-11.9047
▁Elefant	-11.9047
▁Encore	-11.9047
▁Fakultät	-11.9047
▁Figures	-11.9047
▁Fiji	-11.9047
▁Flieh	-11.9047
▁Frisco	-11.9047
▁Geduld	-11.9047
▁Geschäft	-11.9047
▁Gesänge	-11.9047
▁Gewänder	-11.9047
▁Grüß	-11.9047
▁HANDWERKSBURSCH	-11.9047
▁Horrible	-11.9047
▁Händedruck	-11.9047
▁Hülfe	-11.9047
▁Indianapolis	-11.9047
▁Insupportable	-11.9047
▁Joliet	-11.9047
▁Kramm	-11.9047
▁Kremetchuk	-11.9047
▁Kröte	-11.9047
▁Kätz	-11.9047
▁Laundry	-11.9047
▁Library	-11.9047
▁Majesty	-11.9047
▁Meerkatze	-11.9047
▁Metaphysik	-11.9047
▁Mäuse	-11.9047
▁Müßt	-11.9047
▁Neuigkeiten	-11.9047
▁Nirvana	-11.9047
▁Norfolk	-11.9047
▁Ornaments	-11.9047
▁Ostheim	-11.9047
▁Parents	-11.9047
▁Photographs	-11.9047
▁Physi	-11.9047
▁Publikum	-11.9047
▁Qualität	-11.9047
▁Quixote	-11.9047
▁Rejane	-11.9047
▁Ruhebett	-11.9047
▁Sabath	-11.9047
▁Salamander	-11.9047
▁Samaritan	-11.9047
▁Schläge	-11.9047
▁Schlünde	-11.9047
▁Schopfe	-11.9047
▁Schornstein	-11.9047
▁Schwanz	-11.9047
▁Schweiß	-11.9047
▁Schwerdtlein	-11.9047
▁Seufze	-11.9047
▁Shatov	-11.9047
▁Sholom	-11.9047
▁Shouts	-11.9047
▁Siberia	-11.9047
▁Sibylle	-11.9047
▁Sterblichen	-11.9047
▁Sylphe	-11.9047
▁Söhne	-11.9047
▁Tarquin	-11.9047
▁Tartarin	-11.9047
▁Tennuhsee	-11.9047
▁Theologie	-11.9047
▁Tiefste	-11.9047
▁Tätigkeit	-11.9047
▁Umsonst	-11.9047
▁Ungeheuer	-11.9047
▁Valentin	-11.9047
▁Verdruß	-11.9047
▁Verworfne	-11.9047
▁Villany	-11.9047
▁WATER	-11.9047
▁Wentworth	-11.9047
▁Widerspruch	-11.9047
▁Wurzeln	-11.9047
▁Wälder	-11.9047
▁Wände	-11.9047
▁Zaudern	-11.9047
▁absolute	-11.9047
▁abstractedly	-11.9047
▁acquiescen	-11.9047
▁admiring	-11.9047
▁advocate	-11.9047
▁aghast	-11.9047
▁allgemeine	-11.9047
▁ancestors	-11.9047
▁angeführt	-11.9047
▁arranging	-11.9047
▁artificial	-11.9047
▁assignation	-11.9047
▁associates	-11.9047
▁atmosphere	-11.9047
▁attentive	-11.9047
▁audible	-11.9047
▁auszuspüren	-11.9047
▁authentic	-11.9047
▁banjo	-11.9047
▁bankruptc	-11.9047
▁bathkeepers	-11.9047
▁beauteous	-11.9047
▁beschwören	-11.9047
▁betrügen	-11.9047
▁bodkin	-11.9047
▁boobilariat	-11.9047
▁breeze	-11.9047
▁brimstone	-11.9047
▁bromide	-11.9047
▁brothel	-11.9047
▁brünstig	-11.9047
▁buffoon	-11.9047
▁cadenza	-11.9047
▁captured	-11.9047
▁caterpillar	-11.9047
▁cathedrals	-11.9047
▁central	-11.9047
▁clumsy	-11.9047
▁codfish	-11.9047
▁compulsion	-11.9047
▁conflict	-11.9047
▁conjure	-11.9047
▁consequence	-11.9047
▁consummate	-11.9047
▁continent	-11.9047
▁convenience	-11.9047
▁coquette	-11.9047
▁correct	-11.9047
▁council	-11.9047
▁cushions	-11.9047
▁cynicism	-11.9047
▁deerskin	-11.9047
▁definite	-11.9047
▁deklamieren	-11.9047
▁delusive	-11.9047
▁deputies	-11.9047
▁diamond	-11.9047
▁digging	-11.9047
▁dimension	-11.9047
▁disclosure	-11.9047
▁disguise	-11.9047
▁disinheritance	-11.9047
▁divine	-11.9047
▁dominions	-11.9047
▁dungeon	-11.9047
▁dämmert	-11.9047
▁educated	-11.9047
▁elderly	-11.9047
▁emperor	-11.9047
▁enormous	-11.9047
▁entfernen	-11.9047
▁entflohn	-11.9047
▁entsetzliche	-11.9047
▁entzückt	-11.9047
▁enunciati	-11.9047
▁ergetzt	-11.9047
▁eventually	-11.9047
▁evident	-11.9047
▁exceedingly	-11.9047
▁exclaims	-11.9047
▁extraordinary	-11.9047
▁fascinating	-11.9047
▁festzuhalten	-11.9047
▁fidelity	-11.9047
▁flammt	-11.9047
▁frayed	-11.9047
▁frißt	-11.9047
▁fugitive	-11.9047
▁gadzooks	-11.9047
▁galubcheck	-11.9047
▁geometri	-11.9047
▁gequält	-11.9047
▁gesagt	-11.9047
▁geschäftig	-11.9047
▁getrost	-11.9047
▁gewinnt	-11.9047
▁ghastly	-11.9047
▁giggling	-11.9047
▁godmother	-11.9047
▁gratitude	-11.9047
▁grillenhafte	-11.9047
▁göttergleich	-11.9047
▁harmonics	-11.9047
▁harpsichord	-11.9047
▁harvest	-11.9047
▁henceforth	-11.9047
▁hingegeben	-11.9047
▁hinterdrein	-11.9047
▁hinweggerafft	-11.9047
▁huddle	-11.9047
▁hugging	-11.9047
▁häusliche	-11.9047
▁iconoclast	-11.9047
▁immeasurable	-11.9047
▁infinite	-11.9047
▁ingratitude	-11.9047
▁insufferabl	-11.9047
▁intelligible	-11.9047
▁irrevocabl	-11.9047
▁juggl	-11.9047
▁kräusel	-11.9047
▁lamentations	-11.9047
▁landscape	-11.9047
▁lispeln	-11.9047
▁loafer	-11.9047
▁lollypop	-11.9047
▁magnanimous	-11.9047
▁matron	-11.9047
▁meditative	-11.9047
▁memoirs	-11.9047
▁micgrozcope	-11.9047
▁miscreant	-11.9047
▁monuments	-11.9047
▁muntre	-11.9047
▁mörder	-11.9047
▁neglige	-11.9047
▁niggard	-11.9047
▁nonsense	-11.9047
▁nuisance	-11.9047
▁nächsten	-11.9047
▁nähren	-11.9047
▁nützt	-11.9047
▁obscur	-11.9047
▁occupied	-11.9047
▁paradox	-11.9047
▁paramour	-11.9047
▁parasols	-11.9047
▁peacock	-11.9047
▁pedigree	-11.9047
▁perspective	-11.9047
▁pessimism	-11.9047
▁petticoat	-11.9047
▁philosophers	-11.9047
▁philosophy	-11.9047
▁phosphate	-11.9047
▁pincers	-11.9047
▁pompously	-11.9047
▁porcelain	-11.9047
▁possibly	-11.9047
▁precaution	-11.9047
▁predecessor	-11.9047
▁predicament	-11.9047
▁prelude	-11.9047
▁quarrel	-11.9047
▁quetschend	-11.9047
▁quirlt	-11.9047
▁raffle	-11.9047
▁railroad	-11.9047
▁rakish	-11.9047
▁remarking	-11.9047
▁remorse	-11.9047
▁rhyme	-11.9047
▁rühme	-11.9047
▁sacrament	-11.9047
▁schlepp	-11.9047
▁schläft	-11.9047
▁schreckliche	-11.9047
▁schweifen	-11.9047
▁separation	-11.9047
▁skilful	-11.9047
▁skyrockets	-11.9047
▁slouches	-11.9047
▁slumber	-11.9047
▁solitaire	-11.9047
▁splendor	-11.9047
▁squandered	-11.9047
▁squeak	-11.9047
▁statistic	-11.9047
▁streifen	-11.9047
▁sulphurous	-11.9047
▁suppliant	-11.9047
▁suppressed	-11.9047
▁suspenders	-11.9047
▁suspense	-11.9047
▁syllable	-11.9047
▁sympathetic	-11.9047
▁sympathize	-11.9047
▁säusel	-11.9047
▁tablecloth	-11.9047
▁tawdry	-11.9047
▁taxpayers	-11.9047
▁teacup	-11.9047
▁testimon	-11.9047
▁threshold	-11.9047
▁thunderbolt	-11.9047
▁tradition	-11.9047
▁traurig	-11.9047
▁treadmill	-11.9047
▁trinkets	-11.9047
▁troubadour	-11.9047
▁träume	-11.9047
▁tugboats	-11.9047
▁umwanden	-11.9047
▁umwittert	-11.9047
▁underworld	-11.9047
▁unerhört	-11.9047
▁unexceptionable	-11.9047
▁unexpected	-11.9047
▁ungestört	-11.9047
▁unimaginative	-11.9047
▁uninterest	-11.9047
▁unrealities	-11.9047
▁unrewarded	-11.9047
▁unutterable	-11.9047
▁unworthiness	-11.9047
▁vehemently	-11.9047
▁verborgen	-11.9047
▁verborgne	-11.9047
▁verdammt	-11.9047
▁verjüngen	-11.9047
▁vermag	-11.9047
▁vermessen	-11.9047
▁verschied	-11.9047
▁verworren	-11.9047
▁verzweifelt	-11.9047
▁vocabulary	-11.9047
▁vollbracht	-11.9047
▁wardrobe	-11.9047
▁wrinkled	-11.9047
▁zerfließen	-11.9047
▁zerstreut	-11.9047
▁zerstör	-11.9047
▁zigzags	-11.9047
▁zugebracht	-11.9047
▁Äpfel	-11.9047
▁überläuft	-11.9047
▁Kansas	-11.9047
▁briefly	-11.9047
▁eaves	-11.9047
▁geblieben	-11.9047
▁lopsided	-11.9047
▁perverse	-11.9047
▁science	-11.9047
▁scrawl	-11.9047
▁spukt	-11.9047
Exile	-11.9047
Gargoyles	-11.9047
bläh	-11.9047
ceptibl	-11.9047
ffenbar	-11.9047
getanzt	-11.9047
hatsamatter	-11.9047
krokosmus	-11.9047
kränk	-11.9047
lippen	-11.9047
mäßig	-11.9047
pfropf	-11.9047
stärk	-11.9047
zusehen	-11.9047
äßlich	-11.9047
▁Bergeshöh	-11.9047
▁Brüste	-11.9047
▁Buying	-11.9047
▁Dionys	-11.9047
▁Dreams	-11.9047
▁Ehrfu	-11.9047
▁Faint	-11.9047
▁Flatter	-11.9047
▁Hungry	-11.9047
▁Lebenslauf	-11.9047
▁Lumpen	-11.9047
▁Nahrung	-11.9047
▁Nebraska	-11.9047
▁Oppos	-11.9047
▁Ragout	-11.9047
▁Routine	-11.9047
▁Schuhu	-11.9047
▁Schwingen	-11.9047
▁Schädel	-11.9047
▁Skola	-11.9047
▁Somebody	-11.9047
▁Standard	-11.9047
▁Stuhl	-11.9047
▁Tiberius	-11.9047
▁Titian	-11.9047
▁Tremble	-11.9047
▁Twice	-11.9047
▁Understand	-11.9047
▁Univers	-11.9047
▁Verbind	-11.9047
▁Verliebte	-11.9047
▁Versprich	-11.9047
▁Virtu	-11.9047
▁Wirklichkeit	-11.9047
▁adjur	-11.9047
▁antechamber	-11.9047
▁battle	-11.9047
▁beweinen	-11.9047
▁breakfast	-11.9047
▁brutal	-11.9047
▁capricious	-11.9047
▁cheese	-11.9047
▁conference	-11.9047
▁decline	-11.9047
▁doloros	-11.9047
▁economi	-11.9047
▁eggs	-11.9047
▁elegan	-11.9047
▁entweich	-11.9047
▁extravagan	-11.9047
▁gebannt	-11.9047
▁gefiel	-11.9047
▁glänze	-11.9047
â	-12.9047
ô	-12.9047
#	-12.915
ï	-12.9151
è	-12.9152
X	-12.9153
[	-12.9154
$	-12.9155
Q	-12.9156
q	-12.9157
x	-12.9158
ä	-12.9159
*	-12.916
j	-12.9161
